<unk>	0
<s>	0
</s>	0
▁п	-0
▁в	-1
ро	-2
на	-3
▁з	-4
ра	-5
ст	-6
ов	-7
ни	-8
▁т	-9
▁д	-10
ні	-11
ер	-12
▁на	-13
▁у	-14
▁с	-15
ко	-16
▁о	-17
ти	-18
▁м	-19
сь	-20
ли	-21
но	-22
▁за	-23
ід	-24
▁б	-25
ів	-26
го	-27
ри	-28
ва	-29
▁по	-30
ен	-31
ла	-32
ка	-33
ки	-34
ій	-35
ль	-36
▁та	-37
ня	-38
ть	-39
не	-40
ку	-41
▁ро	-42
▁і	-43
▁а	-44
кра	-45
ці	-46
ом	-47
▁про	-48
ан	-49
краї	-50
▁до	-51
рі	-52
ре	-53
та	-54
ло	-55
лі	-56
ля	-57
▁украї	-58
ся	-59
да	-60
то	-61
ну	-62
▁об	-63
▁ви	-64
ми	-65
во	-66
▁щ	-67
ди	-68
▁не	-69
ере	-70
ма	-71
сі	-72
га	-73
▁ч	-74
ру	-75
ле	-76
▁від	-77
▁я	-78
▁ко	-79
них	-80
ійсь	-81
му	-82
кі	-83
ві	-84
▁що	-85
по	-86
▁ра	-87
ту	-88
▁ц	-89
▁мі	-90
ова	-91
▁во	-92
ення	-93
ють	-94
▁г	-95
ого	-96
ста	-97
мо	-98
▁під	-99
▁бу	-100
▁–	-101
мі	-102
▁1	-103
ви	-104
▁ма	-105
же	-106
▁пов	-107
▁х	-108
па	-109
ува	-110
ків	-111
▁▪	-112
ови	-113
▁▪️	-114
сько	-115
ря	-116
чи	-117
те	-118
▁«	-119
лю	-120
▁2	-121
ши	-122
де	-123
ча	-124
▁при	-125
сть	-126
▁мо	-127
би	-128
ного	-129
▁к	-130
▁-	-131
▁пере	-132
лу	-133
до	-134
ді	-135
▁обла	-136
бу	-137
пе	-138
▁росі	-139
ду	-140
ово	-141
ний	-142
со	-143
за	-144
▁ж	-145
іль	-146
▁це	-147
ння	-148
сійсь	-149
▁ф	-150
▁ін	-151
бо	-152
ові	-153
▁ми	-154
си	-155
▁t	-156
куп	-157
ке	-158
▁роз	-159
▁російсь	-160
ше	-161
▁те	-162
▁україни	-163
▁ре	-164
кий	-165
▁ст	-166
▁си	-167
ної	-168
ті	-169
▁бо	-170
су	-171
ції	-172
ться	-173
▁є	-174
▁го	-175
сті	-176
ез	-177
▁для	-178
in	-179
▁війсь	-180
зи	-181
▁україн	-182
сти	-183
пи	-184
ких	-185
ар	-186
▁—	-187
три	-188
тів	-189
ідом	-190
▁е	-191
▁ві	-192
ор	-193
▁й	-194
▁ба	-195
▁ти	-196
ме	-197
▁окуп	-198
▁військ	-199
щи	-200
00	-201
ra	-202
ги	-203
▁де	-204
▁ка	-205
▁р	-206
▁повідом	-207
се	-208
хо	-209
ць	-210
ому	-211
ська	-212
ери	-213
▁ш	-214
▁"	-215
стрі	-216
жа	-217
ання	-218
▁лю	-219
ба	-220
▁ме	-221
вати	-222
▁три	-223
▁ча	-224
es	-225
▁су	-226
тив	-227
ве	-228
▁ки	-229
▁o	-230
про	-231
▁н	-232
▁u	-233
▁ва	-234
▁3	-235
цій	-236
▁росія	-237
▁як	-238
сту	-239
▁ді	-240
жу	-241
пу	-242
▁ста	-243
ден	-244
їв	-245
▁пра	-246
▁пре	-247
сто	-248
▁раке	-249
пра	-250
йо	-251
ник	-252
ього	-253
▁ні	-254
ша	-255
тя	-256
▁ї	-257
ран	-258
▁па	-259
kra	-260
▁без	-261
krain	-262
▁україні	-263
im	-264
▁воро	-265
дні	-266
рів	-267
ської	-268
▁окупан	-269
▁із	-270
▁(	-271
kraine	-272
▁of	-273
▁обстрі	-274
бі	-275
ція	-276
жи	-277
чі	-278
▁область	-279
лід	-280
зна	-281
хи	-282
▁жи	-283
пов	-284
▁лі	-285
кла	-286
▁тако	-287
нів	-288
▁ukraine	-289
▁пу	-290
ється	-291
ців	-292
омо	-293
▁які	-294
▁tim	-295
▁інф	-296
ніст	-297
▁times	-298
гу	-299
⚡️	-300
▁сво	-301
тро	-302
са	-303
тра	-304
кій	-305
дя	-306
бро	-307
лів	-308
гі	-309
ємо	-310
пі	-311
ський	-312
▁са	-313
ця	-314
▁також	-315
ових	-316
ову	-317
▁ще	-318
нь	-319
▁ар	-320
оро	-321
▁ком	-322
▁да	-323
▁4	-324
▁5	-325
фі	-326
зу	-327
▁⚡️	-328
▁доп	-329
▁наш	-330
че	-331
ок	-332
▁вій	-333
▁рф	-334
ерито	-335
кс	-336
▁терито	-337
▁од	-338
▁ве	-339
▁пі	-340
це	-341
лен	-342
▁кі	-343
▁нап	-344
▁він	-345
ського	-346
від	-347
▁райо	-348
ському	-349
▁кри	-350
зь	-351
ному	-352
▁ли	-353
ерсо	-354
ерез	-355
»,	-356
кри	-357
▁бі	-358
вер	-359
раз	-360
▁українсь	-361
▁краї	-362
▁вже	-363
вали	-364
▁кон	-365
▁ру	-366
дов	-367
тря	-368
▁гол	-369
ника	-370
».	-371
▁випа	-372
слід	-373
▁територі	-374
кої	-375
мен	-376
▁час	-377
трима	-378
при	-379
▁росії	-380
лення	-381
увати	-382
ню	-383
ері	-384
▁чи	-385
▁20	-386
сте	-387
▁то	-388
цію	-389
▁уда	-390
дів	-391
he	-392
рям	-393
▁ці	-394
▁оборо	-395
ття	-396
▁проти	-397
ними	-398
ним	-399
ною	-400
дин	-401
▁херсо	-402
▁со	-403
ування	-404
▁рі	-405
тор	-406
хні	-407
▁се	-408
▁зе	-409
▁ракет	-410
нк	-411
орма	-412
▁заги	-413
▁триво	-414
▁ди	-415
еред	-416
нення	-417
▁випад	-418
▁але	-419
▁ци	-420
цю	-421
▁області	-422
▁зав	-423
▁га	-424
▁зна	-425
▁дер	-426
▁хар	-427
▁гро	-428
▁напрям	-429
er	-430
❗️	-431
ження	-432
віль	-433
▁повідомля	-434
▁чер	-435
ших	-436
▁6	-437
ха	-438
▁ав	-439
▁допомо	-440
▁зсу	-441
▁захи	-442
ній	-443
аль	-444
ень	-445
▁пові	-446
віт	-447
род	-448
бли	-449
прав	-450
▁a	-451
вро	-452
стан	-453
▁всі	-454
ській	-455
йте	-456
яви	-457
▁повідоми	-458
єю	-459
▁його	-460
!!	-461
▁❗️	-462
ган	-463
▁буде	-464
тич	-465
▁міс	-466
ються	-467
▁най	-468
том	-469
ники	-470
жли	-471
час	-472
ників	-473
зиден	-474
▁повітря	-475
кого	-476
стра	-477
дей	-478
▁вони	-479
!!️	-480
пор	-481
чу	-482
▁людей	-483
▁через	-484
▁зі	-485
жна	-486
хід	-487
ном	-488
▁зни	-489
▁так	-490
▁сього	-491
гра	-492
▁сьогодні	-493
▁щоб	-494
шта	-495
▁євро	-496
дали	-497
ші	-498
щині	-499
▁інформа	-500
▁біль	-501
▁тривога	-502
▁збро	-503
▁скла	-504
овий	-505
біль	-506
вання	-507
▁s	-508
вся	-509
нов	-510
▁!!️	-511
▁президен	-512
нець	-513
▁піс	-514
кту	-515
ччи	-516
▁над	-517
▁продов	-518
дже	-519
▁7	-520
тер	-521
ву	-522
▁росіяни	-523
ступ	-524
▁держа	-525
▁окупанти	-526
▁грома	-527
▁сп	-528
▁насе	-529
▁the	-530
▁ку	-531
▁запо	-532
▁херсон	-533
",	-534
ової	-535
ність	-536
▁тим	-537
енер	-538
ar	-539
ності	-540
▁київ	-541
ще	-542
роз	-543
▁підтри	-544
▁оборони	-545
стру	-546
▁кіль	-547
шу	-548
▁після	-549
▁ген	-550
ком	-551
рдо	-552
▁бой	-553
▁ду	-554
▁отрима	-555
▁лу	-556
повід	-557
▁мініст	-558
▁війни	-559
вав	-560
▁пла	-561
▁бри	-562
що	-563
нії	-564
▁пунк	-565
▁h	-566
▁8	-567
▁їх	-568
▁техні	-569
▁міста	-570
▁9	-571
▁гу	-572
чення	-573
▁пи	-574
▁ге	-575
ої	-576
▁киє	-577
он	-578
тил	-579
▁ак	-580
▁зу	-581
▁україна	-582
▁хо	-583
зі	-584
пера	-585
▁який	-586
луж	-587
▁ата	-588
▁випадків	-589
an	-590
пла	-591
лек	-592
▁пер	-593
▁полі	-594
ци	-595
ового	-596
▁вибу	-597
▁ту	-598
▁харків	-599
▁запорі	-600
▁сер	-601
пер	-602
▁вико	-603
▁постра	-604
шко	-605
▁p	-606
над	-607
▁постраж	-608
анк	-609
▁працю	-610
▁території	-611
▁російських	-612
тися	-613
▁заяви	-614
▁напрямку	-615
on	-616
анд	-617
▁може	-618
or	-619
▁робо	-620
en	-621
жі	-622
▁спо	-623
▁окупова	-624
трі	-625
▁було	-626
кола	-627
▁втра	-628
▁вла	-629
▁пів	-630
▁зали	-631
▁поча	-632
▁року	-633
▁артил	-634
став	-635
▁ор	-636
ках	-637
▁зазна	-638
▁щодо	-639
▁10	-640
▁вели	-641
▁дні	-642
▁ворог	-643
▁свої	-644
▁воло	-645
ліз	-646
▁люди	-647
tt	-648
ким	-649
▁все	-650
кому	-651
▁ан	-652
▁російські	-653
нах	-654
дій	-655
▁зараз	-656
▁c	-657
ома	-658
▁сша	-659
▁тому	-660
▁•	-661
слідок	-662
єк	-663
▁осо	-664
▁окупантів	-665
ерів	-666
шення	-667
ща	-668
▁сл	-669
▁раши	-670
▁загину	-671
чання	-672
▁оле	-673
▁україну	-674
наслідок	-675
▁повідомляє	-676
голо	-677
▁пора	-678
▁систе	-679
▁них	-680
▁мл	-681
блі	-682
мага	-683
тов	-684
▁зага	-685
▁ова	-686
▁усі	-687
▁марі	-688
▁май	-689
▁против	-690
▁голова	-691
кре	-692
бе	-693
▁зелен	-694
рон	-695
▁зби	-696
нс	-697
овано	-698
▁пар	-699
без	-700
▁продовжу	-701
віа	-702
дуть	-703
▁повідомив	-704
кан	-705
▁w	-706
▁світ	-707
лися	-708
▁хто	-709
▁сил	-710
▁зро	-711
▁фі	-712
▁понад	-713
упо	-714
▁опера	-715
▁зо	-716
▁f	-717
тні	-718
єн	-719
жуть	-720
▁сто	-721
бра	-722
ге	-723
▁авіа	-724
розді	-725
ск	-726
▁коли	-727
▁відповід	-728
▁бли	-729
▁населе	-730
яз	-731
рони	-732
тей	-733
▁цього	-734
▁захо	-735
▁тимчас	-736
бува	-737
штаб	-738
▁місце	-739
▁тра	-740
рю	-741
▁ос	-742
▁202	-743
▁будин	-744
▁біло	-745
ях	-746
кою	-747
▁раз	-748
нок	-749
▁більше	-750
▁маріупо	-751
ства	-752
ео	-753
▁луган	-754
▁поране	-755
▁микола	-756
хму	-757
▁безпе	-758
▁підтрим	-759
▁має	-760
▁цивіль	-761
безпе	-762
рій	-763
▁змі	-764
рист	-765
▁пошко	-766
зе	-767
тку	-768
▁аг	-769
▁оде	-770
▁підрозді	-771
каза	-772
▁перемо	-773
ючи	-774
ент	-775
▁внаслідок	-776
▁українських	-777
ps	-778
сла	-779
▁че	-780
▁ппо	-781
сіб	-782
▁близь	-783
структу	-784
▁дітей	-785
раструкту	-786
має	-787
▁гру	-788
дав	-789
наль	-790
ян	-791
▁фо	-792
▁наших	-793
▁бахму	-794
▁m	-795
лося	-796
le	-797
дна	-798
▁дру	-799
▁донець	-800
тар	-801
▁стан	-802
▁інфраструкту	-803
▁повер	-804
▁відео	-805
▁енер	-806
re	-807
▁кож	-808
▁бага	-809
▁15	-810
ську	-811
тами	-812
▁постраждали	-813
▁тися	-814
чно	-815
▁тимчасово	-816
кли	-817
▁нас	-818
ху	-819
▁її	-820
ове	-821
▁санк	-822
//	-823
://	-824
▁путі	-825
▁b	-826
ські	-827
криття	-828
▁чо	-829
▁htt	-830
мініст	-831
яв	-832
▁(+	-833
▁того	-834
дян	-835
лом	-836
▁пози	-837
▁тан	-838
нія	-839
▁поль	-840
▁https	-841
ували	-842
-1	-843
ром	-844
кар	-845
▁країни	-846
▁12	-847
ських	-848
▁добу	-849
▁осіб	-850
дими	-851
лові	-852
".	-853
▁ла	-854
▁кра	-855
▁захис	-856
▁боє	-857
▁офі	-858
▁можли	-859
дійс	-860
▁намага	-861
▁дж	-862
льні	-863
at	-864
▁наші	-865
▁елек	-866
▁переда	-867
it	-868
річ	-869
хів	-870
сів	-871
ваку	-872
▁районі	-873
▁яка	-874
енко	-875
▁армі	-876
▁літа	-877
ниць	-878
▁слова	-879
▁но	-880
▁або	-881
кість	-882
▁поп	-883
▁жит	-884
▁білору	-885
▁ракети	-886
йш	-887
▁части	-888
▁близько	-889
▁орга	-890
is	-891
▁військових	-892
▁нав	-893
▁звіль	-894
▁якщо	-895
▁українців	-896
▁пред	-897
▁екс	-898
дат	-899
клю	-900
▁запорізь	-901
▁еваку	-902
▁нада	-903
▁здійс	-904
▁фото	-905
▁ство	-906
▁сили	-907
чні	-908
об	-909
туа	-910
▁спе	-911
▁володими	-912
спі	-913
дер	-914
чних	-915
ров	-916
▁сі	-917
▁11	-918
▁обстріля	-919
вала	-920
разі	-921
гнення	-922
дь	-923
хов	-924
▁немає	-925
▁теле	-926
▁лише	-927
▁заявив	-928
ство	-929
стів	-930
ільки	-931
▁вби	-932
al	-933
вед	-934
▁там	-935
..	-936
▁мар	-937
▁ле	-938
▁зако	-939
▁ті	-940
▁зло	-941
рдон	-942
▁президент	-943
🇺🇦	-944
роб	-945
▁серед	-946
ак	-947
▁олекс	-948
ov	-949
▁вда	-950
▁техніки	-951
▁бути	-952
▁ситуа	-953
▁24	-954
рема	-955
▁втор	-956
ряту	-957
▁єс	-958
▁росіян	-959
щини	-960
▁один	-961
▁можна	-962
▁сві	-963
▁повітряна	-964
▁#	-965
вид	-966
ряд	-967
▁дво	-968
▁пе	-969
йн	-970
▁“	-971
▁міжна	-972
▁d	-973
гів	-974
▁трива	-975
▁укриття	-976
цт	-977
▁був	-978
▁ль	-979
окрема	-980
▁розвід	-981
▁спів	-982
▁компа	-983
ками	-984
ман	-985
▁дій	-986
▁млн	-987
щі	-988
рна	-989
▁допомоги	-990
лов	-991
єм	-992
ходи	-993
вів	-994
▁наразі	-995
сштаб	-996
рн	-997
▁‒	-998
сії	-999
припа	-1000
▁українські	-1001
▁рів	-1002
▁фе	-1003
льйо	-1004
ньо	-1005
▁дніпро	-1006
▁ворога	-1007
писа	-1008
000	-1009
▁св	-1010
▁вона	-1011
украї	-1012
▁ударів	-1013
гля	-1014
▁боєприпа	-1015
клика	-1016
ін	-1017
▁in	-1018
▁електро	-1019
▁дуже	-1020
▁агре	-1021
▁поси	-1022
▁держав	-1023
▁кількість	-1024
▁зеленський	-1025
кіль	-1026
кими	-1027
▁життя	-1028
▁багато	-1029
▁18	-1030
▁и	-1031
тан	-1032
▁військові	-1033
20	-1034
гом	-1035
▁вторгнення	-1036
▁російського	-1037
мер	-1038
нути	-1039
цією	-1040
щина	-1041
твер	-1042
єї	-1043
▁поло	-1044
▁зброй	-1045
▁були	-1046
чо	-1047
вар	-1048
▁німе	-1049
▁злочи	-1050
гово	-1051
▁років	-1052
▁артилері	-1053
▁києві	-1054
▁органі	-1055
ou	-1056
▁оголо	-1057
▁зокрема	-1058
▁миколаїв	-1059
ене	-1060
▁поста	-1061
гро	-1062
ницт	-1063
пові	-1064
овані	-1065
▁можуть	-1066
▁ни	-1067
тров	-1068
▁пошкодже	-1069
st	-1070
ніше	-1071
їз	-1072
),	-1073
id	-1074
мін	-1075
нами	-1076
▁мир	-1077
▁0	-1078
▁станом	-1079
ціо	-1080
▁вер	-1081
▁міжнарод	-1082
▁n	-1083
▁авто	-1084
порт	-1085
▁поран	-1086
мові	-1087
сія	-1088
▁черні	-1089
▁втрати	-1090
петров	-1091
▁звер	-1092
мови	-1093
▁залиша	-1094
ранс	-1095
мані	-1096
єр	-1097
▁14	-1098
піль	-1099
гіо	-1100
om	-1101
купа	-1102
▁поки	-1103
▁мину	-1104
▁спро	-1105
▁тисяч	-1106
тріб	-1107
ска	-1108
▁використ	-1109
вня	-1110
лася	-1111
деться	-1112
▁одна	-1113
▁всіх	-1114
нен	-1115
льних	-1116
▁ву	-1117
▁рішення	-1118
▁13	-1119
нку	-1120
чив	-1121
щення	-1122
▁справ	-1123
рім	-1124
▁загибли	-1125
▁будуть	-1126
▁вог	-1127
зво	-1128
▁плану	-1129
▁16	-1130
▁бпла	-1131
▁російської	-1132
нні	-1133
▁дії	-1134
▁тре	-1135
▁теро	-1136
▁тільки	-1137
▁ад	-1138
▁ніч	-1139
▁потріб	-1140
▁нови	-1141
▁знищи	-1142
▁саме	-1143
служ	-1144
ера	-1145
стро	-1146
▁🔺	-1147
ованих	-1148
▁19	-1149
▁прово	-1150
дно	-1151
▁влу	-1152
▁регіо	-1153
).	-1154
тур	-1155
▁брига	-1156
гій	-1157
дії	-1158
▁бро	-1159
▁населених	-1160
дом	-1161
ночі	-1162
▁ю	-1163
▁міністр	-1164
▁перед	-1165
▁перебува	-1166
нити	-1167
▁повідомляють	-1168
▁противника	-1169
▁наві	-1170
▁разом	-1171
бов	-1172
▁найбіль	-1173
▁керів	-1174
лами	-1175
бити	-1176
▁військово	-1177
пле	-1178
▁сум	-1179
▁президента	-1180
▁голов	-1181
ськ	-1182
▁зру	-1183
▁пол	-1184
▁цей	-1185
▁бахмут	-1186
лот	-1187
ох	-1188
▁представ	-1189
▁g	-1190
▁постраждалих	-1191
ed	-1192
ков	-1193
стей	-1194
ерійсь	-1195
▁міно	-1196
▁військової	-1197
▁обстріляли	-1198
▁різ	-1199
рії	-1200
тре	-1201
▁тер	-1202
▁30	-1203
▁відбу	-1204
▁міся	-1205
▁інфраструктури	-1206
▁грн	-1207
мов	-1208
яку	-1209
▁вої	-1210
▁мають	-1211
дання	-1212
кові	-1213
▁служ	-1214
▁тиж	-1215
гор	-1216
масштаб	-1217
нову	-1218
дження	-1219
рив	-1220
борони	-1221
▁окупа	-1222
льта	-1223
▁яких	-1224
▁загиблих	-1225
▁кордо	-1226
▁берез	-1227
зов	-1228
рд	-1229
▁меди	-1230
▁безпеки	-1231
il	-1232
▁поранення	-1233
йну	-1234
▁геро	-1235
муть	-1236
▁🇺🇦	-1237
▁бойових	-1238
▁ок	-1239
▁кана	-1240
коли	-1241
▁чолові	-1242
▁важли	-1243
ять	-1244
▁навіть	-1245
▁повно	-1246
лава	-1247
дар	-1248
логі	-1249
▁допомогу	-1250
▁стра	-1251
кова	-1252
▁пунктів	-1253
ес	-1254
ерт	-1255
манітар	-1256
▁сказа	-1257
▁му	-1258
▁день	-1259
▁остан	-1260
ціаль	-1261
нили	-1262
зо	-1263
▁обстрілів	-1264
яти	-1265
важа	-1266
▁знище	-1267
:00	-1268
▁чор	-1269
▁сна	-1270
▁будів	-1271
▁нато	-1272
чили	-1273
тах	-1274
▁17	-1275
▁ри	-1276
▁володимир	-1277
▁заклика	-1278
▁неза	-1279
▁зем	-1280
▁оз	-1281
▁удару	-1282
льно	-1283
пусти	-1284
▁словами	-1285
неччи	-1286
▁поперед	-1287
▁зай	-1288
▁актив	-1289
▁будь	-1290
▁дяку	-1291
▁забезпе	-1292
▁змо	-1293
▁напрямках	-1294
▁транс	-1295
▁гуманітар	-1296
точ	-1297
кон	-1298
пей	-1299
день	-1300
тних	-1301
ував	-1302
ково	-1303
▁майже	-1304
дан	-1305
шим	-1306
ниця	-1307
ністю	-1308
▁підтвер	-1309
вих	-1310
▁війну	-1311
▁пам	-1312
▁атаку	-1313
▁районах	-1314
▁необ	-1315
▁випадки	-1316
▁насту	-1317
▁початку	-1318
сього	-1319
▁дніпропетров	-1320
.0	-1321
▁визна	-1322
нови	-1323
серед	-1324
гли	-1325
▁влас	-1326
▁німеччи	-1327
▁боро	-1328
жж	-1329
▁генера	-1330
чити	-1331
▁нашої	-1332
▁інших	-1333
▁знову	-1334
▁олександ	-1335
рем	-1336
▁наступ	-1337
▁поже	-1338
▁складу	-1339
триму	-1340
під	-1341
▁засто	-1342
ший	-1343
▁уча	-1344
▁війська	-1345
▁джере	-1346
пів	-1347
▁просто	-1348
омага	-1349
▁окре	-1350
зульта	-1351
▁інтер	-1352
▁проте	-1353
▁повномасштаб	-1354
▁нага	-1355
тно	-1356
▁києва	-1357
▁мільйо	-1358
▁обстріли	-1359
▁зустрі	-1360
▁контро	-1361
▁необхід	-1362
лан	-1363
тою	-1364
▁віднов	-1365
лись	-1366
▁жите	-1367
22	-1368
▁зв	-1369
чора	-1370
▁допомага	-1371
▁важ	-1372
чний	-1373
▁област	-1374
▁інформація	-1375
op	-1376
▁мас	-1377
талі	-1378
▁наро	-1379
▁оператив	-1380
▁два	-1381
▁меш	-1382
▁евакуа	-1383
▁артилерії	-1384
того	-1385
▁енерго	-1386
▁вар	-1387
▁тепер	-1388
паган	-1389
станов	-1390
прави	-1391
▁прива	-1392
▁дро	-1393
▁вс	-1394
мовір	-1395
▁ам	-1396
▁25	-1397
▁an	-1398
▁безпі	-1399
повітря	-1400
▁своїх	-1401
єв	-1402
▁країн	-1403
міністра	-1404
30	-1405
▁📍	-1406
▁раніше	-1407
▁артилерійсь	-1408
▁залиши	-1409
▁👊	-1410
▁вибухи	-1411
▁організа	-1412
білі	-1413
▁маши	-1414
нес	-1415
▁сбу	-1416
ціональ	-1417
▁місті	-1418
▁результа	-1419
тки	-1420
▁європей	-1421
▁$	-1422
▁свою	-1423
▁анд	-1424
чного	-1425
▁сергій	-1426
▁рашисти	-1427
мон	-1428
▁заступ	-1429
лено	-1430
▁озбро	-1431
▁чу	-1432
▁команд	-1433
жжя	-1434
дня	-1435
▁прем	-1436
тн	-1437
▁безпілот	-1438
вий	-1439
лось	-1440
рили	-1441
▁тро	-1442
▁ів	-1443
▁кош	-1444
▁2022	-1445
▁фрон	-1446
▁лікар	-1447
▁танків	-1448
чна	-1449
од	-1450
▁нам	-1451
тись	-1452
тання	-1453
▁офіцій	-1454
▁пропаган	-1455
▁громадян	-1456
полі	-1457
ic	-1458
їха	-1459
тягом	-1460
No	-1461
каз	-1462
▁мак	-1463
▁крим	-1464
▁запро	-1465
▁отримали	-1466
▁21	-1467
пере	-1468
томо	-1469
▁ура	-1470
▁право	-1471
▁удар	-1472
▁бло	-1473
▁продовжують	-1474
тин	-1475
▁обстрілу	-1476
▁ворожи	-1477
▁брита	-1478
▁донеччи	-1479
чної	-1480
▁істо	-1481
▁йдеться	-1482
▁вироб	-1483
гру	-1484
▁гра	-1485
ьому	-1486
▁роботи	-1487
сив	-1488
▁тут	-1489
▁бра	-1490
▁пода	-1491
▁львів	-1492
публі	-1493
▁моск	-1494
щу	-1495
▁готу	-1496
нам	-1497
ter	-1498
▁загро	-1499
▁систем	-1500
▁000	-1501
▁раді	-1502
▁противник	-1503
тери	-1504
єдна	-1505
▁підтримку	-1506
▁підтриму	-1507
▁ряту	-1508
тері	-1509
▁розпо	-1510
лам	-1511
рія	-1512
▁воєн	-1513
▁відкри	-1514
порту	-1515
▁шта	-1516
льний	-1517
▁завда	-1518
▁криму	-1519
ір	-1520
▁ново	-1521
ot	-1522
спо	-1523
▁була	-1524
фо	-1525
рб	-1526
▁областях	-1527
▁чернігів	-1528
▁спіль	-1529
били	-1530
▁прий	-1531
▁застос	-1532
▁відомо	-1533
▁мешкан	-1534
фе	-1535
▁міст	-1536
▁еко	-1537
оз	-1538
▁себе	-1539
фор	-1540
ведення	-1541
▁зупи	-1542
▁зруйн	-1543
▁ско	-1544
ны	-1545
лля	-1546
▁пор	-1547
▁продовжує	-1548
▁автомо	-1549
▁жу	-1550
▁тис	-1551
▁зброї	-1552
▁снаря	-1553
нив	-1554
квід	-1555
▁армії	-1556
▁кар	-1557
ління	-1558
▁швид	-1559
▁пос	-1560
▁бойові	-1561
▁особи	-1562
▁областей	-1563
▁оч	-1564
▁санкції	-1565
▁кори	-1566
льного	-1567
▁цент	-1568
▁роботу	-1569
▁окупованих	-1570
▁l	-1571
бле	-1572
приєм	-1573
tu	-1574
▁e	-1575
▁коро	-1576
▁ліквід	-1577
фікс	-1578
▁озброє	-1579
▁знищили	-1580
▁прав	-1581
▁рус	-1582
дж	-1583
▁реч	-1584
город	-1585
▁фіна	-1586
▁польщі	-1587
▁припи	-1588
гти	-1589
чає	-1590
▁поранених	-1591
тиме	-1592
▁національ	-1593
▁куп	-1594
▁тр	-1595
▁само	-1596
▁держави	-1597
▁біля	-1598
▁дозво	-1599
▁зафікс	-1600
рити	-1601
▁місто	-1602
▁російський	-1603
тен	-1604
▁коман	-1605
▁to	-1606
▁кілька	-1607
йшли	-1608
▁паке	-1609
▁луганської	-1610
кін	-1611
пис	-1612
▁розмі	-1613
ion	-1614
▁No	-1615
▁успі	-1616
ційних	-1617
▁цен	-1618
▁вз	-1619
▁путіна	-1620
чер	-1621
▁вночі	-1622
сно	-1623
▁зас	-1624
▁мер	-1625
14	-1626
▁світу	-1627
рах	-1628
▁фран	-1629
10	-1630
▁бом	-1631
▁протягом	-1632
50	-1633
▁23	-1634
російсь	-1635
▁білорусі	-1636
▁березня	-1637
▁атаки	-1638
льо	-1639
▁дія	-1640
▁слава	-1641
▁населення	-1642
лиці	-1643
бір	-1644
▁бій	-1645
▁зб	-1646
▁млрд	-1647
▁амери	-1648
▁засо	-1649
ing	-1650
лась	-1651
▁дані	-1652
▁працює	-1653
▁бер	-1654
▁загарб	-1655
▁сус	-1656
▁нашу	-1657
▁потре	-1658
готов	-1659
▁жерт	-1660
as	-1661
боро	-1662
вої	-1663
лив	-1664
▁яку	-1665
най	-1666
▁інформацію	-1667
▁управ	-1668
бло	-1669
▁22	-1670
дять	-1671
▁км	-1672
▁пошкоджено	-1673
стій	-1674
▁вважа	-1675
зем	-1676
▁очіль	-1677
ir	-1678
кумен	-1679
▁міністер	-1680
▁адміністра	-1681
▁100	-1682
▁потра	-1683
ниці	-1684
▁нев	-1685
▁слід	-1686
ціа	-1687
▁от	-1688
номі	-1689
▁захід	-1690
ське	-1691
вез	-1692
▁журна	-1693
▁повідомили	-1694
-3	-1695
сз	-1696
▁зви	-1697
▁маріуполя	-1698
▁гот	-1699
зс	-1700
▁енерге	-1701
▁одного	-1702
томи	-1703
леж	-1704
кт	-1705
▁r	-1706
реш	-1707
чан	-1708
▁and	-1709
▁цьому	-1710
▁дми	-1711
тики	-1712
▁ніж	-1713
▁оон	-1714
▁інші	-1715
▁став	-1716
▁би	-1717
рення	-1718
▁підприєм	-1719
валь	-1720
▁дити	-1721
▁нові	-1722
▁крила	-1723
▁українського	-1724
див	-1725
▁підоз	-1726
▁наф	-1727
нього	-1728
▁лютого	-1729
▁будинки	-1730
▁загинули	-1731
лять	-1732
чну	-1733
цям	-1734
▁ситуація	-1735
чен	-1736
▁висо	-1737
▁ло	-1738
▁санкцій	-1739
дили	-1740
овим	-1741
▁рез	-1742
▁штур	-1743
воро	-1744
кільки	-1745
жує	-1746
▁свя	-1747
▁триває	-1748
▁здійсню	-1749
...	-1750
дити	-1751
▁спра	-1752
▁поса	-1753
▁захища	-1754
▁їм	-1755
мп	-1756
▁вирі	-1757
кр	-1758
▁зосеред	-1759
кто	-1760
ch	-1761
▁k	-1762
▁вас	-1763
us	-1764
▁місця	-1765
▁руйну	-1766
▁фінанс	-1767
▁пропаганди	-1768
коп	-1769
▁дня	-1770
бового	-1771
▁наслід	-1772
ce	-1773
ol	-1774
ow	-1775
-19	-1776
▁гур	-1777
▁вогне	-1778
▁путін	-1779
▁додат	-1780
нки	-1781
рами	-1782
▁суд	-1783
тих	-1784
▁бан	-1785
україн	-1786
ur	-1787
▁знищено	-1788
▁боєприпасів	-1789
▁обме	-1790
▁сказав	-1791
▁оп	-1792
▁зібра	-1793
▁кро	-1794
-2	-1795
▁попередньо	-1796
поль	-1797
▁ракетних	-1798
шні	-1799
▁системи	-1800
дія	-1801
хай	-1802
▁здо	-1803
▁двох	-1804
▁поверну	-1805
▁українці	-1806
▁днів	-1807
▁новини	-1808
▁спеціаль	-1809
me	-1810
▁донецької	-1811
▁журналі	-1812
▁28	-1813
▁50	-1814
діїв	-1815
▁квіт	-1816
▁бригади	-1817
▁пору	-1818
▁вчора	-1819
▁підрозділи	-1820
ovid	-1821
▁можливо	-1822
▁олександр	-1823
▁доби	-1824
▁докумен	-1825
тичної	-1826
▁черг	-1827
▁озброєння	-1828
▁крім	-1829
анта	-1830
▁жін	-1831
▁🤬	-1832
▁джерело	-1833
▁рашистів	-1834
▁травня	-1835
▁підтримки	-1836
▁управління	-1837
пня	-1838
el	-1839
▁новий	-1840
▁даними	-1841
▁цивільних	-1842
ств	-1843
чів	-1844
▁ради	-1845
▁геншта	-1846
ua	-1847
▁st	-1848
▁своє	-1849
▁аби	-1850
▁дом	-1851
вість	-1852
▁працюють	-1853
шого	-1854
▁дві	-1855
▁житл	-1856
▁прико	-1857
▁району	-1858
нр	-1859
чай	-1860
▁році	-1861
▁прове	-1862
▁питання	-1863
▁for	-1864
▁прибу	-1865
you	-1866
тії	-1867
▁дякую	-1868
▁треба	-1869
ток	-1870
▁40	-1871
мис	-1872
▁мзс	-1873
▁деся	-1874
донець	-1875
▁економі	-1876
▁зазначив	-1877
пар	-1878
туж	-1879
▁covid	-1880
▁свобо	-1881
льної	-1882
▁склад	-1883
▁обстрілю	-1884
лин	-1885
дає	-1886
фер	-1887
▁участь	-1888
▁чека	-1889
▁збройних	-1890
писав	-1891
▁кора	-1892
▁півден	-1893
▁територію	-1894
▁туре	-1895
тав	-1896
▁фон	-1897
▁територій	-1898
нених	-1899
▁напа	-1900
▁дея	-1901
▁цю	-1902
▁росією	-1903
▁затрима	-1904
чені	-1905
▁вам	-1906
▁маріуполь	-1907
лях	-1908
▁бай	-1909
ian	-1910
▁між	-1911
▁російська	-1912
кана	-1913
▁міноборони	-1914
тори	-1915
терів	-1916
▁вис	-1917
▁добро	-1918
▁вп	-1919
вань	-1920
росія	-1921
рма	-1922
▁народ	-1923
▁поши	-1924
▁вибух	-1925
яза	-1926
мель	-1927
▁херсонщині	-1928
▁їхні	-1929
бер	-1930
док	-1931
▁терори	-1932
▁ґ	-1933
▁район	-1934
▁усіх	-1935
▁комен	-1936
▁такі	-1937
▁гово	-1938
▁охо	-1939
▁ракетного	-1940
хі	-1941
дати	-1942
▁повністю	-1943
тім	-1944
дяки	-1945
гна	-1946
там	-1947
ляють	-1948
▁втрат	-1949
чне	-1950
▁заво	-1951
▁ша	-1952
▁постій	-1953
йтесь	-1954
▁основ	-1955
пре	-1956
▁закла	-1957
▁підрозділів	-1958
▁військовослуж	-1959
▁комі	-1960
▁людини	-1961
▁дола	-1962
▁потрапи	-1963
▁голови	-1964
▁шо	-1965
▁іс	-1966
▁тих	-1967
▁спец	-1968
біт	-1969
▁режи	-1970
iv	-1971
▁рад	-1972
томир	-1973
▁реак	-1974
еріга	-1975
▁окупованому	-1976
11	-1977
поля	-1978
▁прикордон	-1979
спе	-1980
be	-1981
▁ше	-1982
▁очі	-1983
ійш	-1984
▁оди	-1985
чина	-1986
▁авдіїв	-1987
▁будинків	-1988
бито	-1989
▁схо	-1990
▁кожен	-1991
▁чому	-1992
▁акти	-1993
▁волон	-1994
▁заліз	-1995
слав	-1996
дера	-1997
▁пови	-1998
▁постачання	-1999
▁програ	-2000
лій	-2001
снс	-2002
літо	-2003
▁збіль	-2004
▁26	-2005
пута	-2006
▁ха	-2007
лені	-2008
▁української	-2009
кувати	-2010
ard	-2011
▁заборо	-2012
▁призна	-2013
яс	-2014
так	-2015
▁re	-2016
▁американ	-2017
близу	-2018
▁вере	-2019
▁макси	-2020
лікоп	-2021
мовірно	-2022
нє	-2023
вого	-2024
▁більш	-2025
▁загинув	-2026
▁запоріжжя	-2027
▁інформацією	-2028
▁наз	-2029
▁ядер	-2030
▁потуж	-2031
▁уточ	-2032
рова	-2033
▁хоче	-2034
нова	-2035
▁рік	-2036
ламен	-2037
▁херсоні	-2038
▁жод	-2039
▁удари	-2040
сзв	-2041
▁наступа	-2042
▁фу	-2043
▁нац	-2044
▁v	-2045
▁збира	-2046
ченко	-2047
ційні	-2048
▁голо	-2049
гії	-2050
▁ім	-2051
жен	-2052
▁сою	-2053
▁годи	-2054
вою	-2055
ктор	-2056
▁зва	-2057
▁под	-2058
▁ска	-2059
▁поблизу	-2060
йти	-2061
▁мед	-2062
▁меліто	-2063
▁завдяки	-2064
никами	-2065
▁британії	-2066
▁відновлення	-2067
▁хло	-2068
рун	-2069
▁27	-2070
окуп	-2071
▁цієї	-2072
стер	-2073
▁кур	-2074
никам	-2075
▁дснс	-2076
▁генштабу	-2077
▁дов	-2078
▁фор	-2079
біліза	-2080
▁повітряних	-2081
працю	-2082
▁підготов	-2083
лян	-2084
▁підтрима	-2085
сили	-2086
▁зафіксовано	-2087
матор	-2088
▁лід	-2089
▁мере	-2090
▁самі	-2091
язку	-2092
ель	-2093
ляє	-2094
▁хви	-2095
ia	-2096
▁завер	-2097
▁інтерв	-2098
▁тривають	-2099
▁відповідаль	-2100
▁29	-2101
▁коло	-2102
▁жителів	-2103
et	-2104
хво	-2105
▁війні	-2106
▁ае	-2107
▁війна	-2108
▁служби	-2109
▁реа	-2110
ським	-2111
▁публі	-2112
▁квітня	-2113
▁прес	-2114
▁викона	-2115
бри	-2116
▁мене	-2117
▁потрібно	-2118
▁росію	-2119
▁захисту	-2120
єкт	-2121
ником	-2122
▁смер	-2123
▁угру	-2124
▁минуло	-2125
▁комп	-2126
▁мор	-2127
▁фа	-2128
шими	-2129
▁укра	-2130
▁речник	-2131
повер	-2132
▁вияви	-2133
▁закри	-2134
▁кита	-2135
▁жертв	-2136
▁територіях	-2137
дук	-2138
мова	-2139
23	-2140
▁бороть	-2141
▁цих	-2142
ет	-2143
ген	-2144
град	-2145
пл	-2146
єкти	-2147
ферен	-2148
▁перегово	-2149
▁україною	-2150
▁запорізької	-2151
▁зуси	-2152
їзд	-2153
форма	-2154
▁переві	-2155
▁небезпе	-2156
▁навчання	-2157
чаль	-2158
▁український	-2159
тично	-2160
▁загалом	-2161
▁фак	-2162
ьох	-2163
міністр	-2164
▁нов	-2165
▁пря	-2166
▁сам	-2167
▁хочу	-2168
▁агресії	-2169
▁рід	-2170
▁матері	-2171
▁укриттях	-2172
тє	-2173
тувати	-2174
▁міністра	-2175
▁йому	-2176
▁вибухів	-2177
ближ	-2178
av	-2179
діа	-2180
бар	-2181
▁розпоча	-2182
▁компанії	-2183
▁позиції	-2184
▁дмитро	-2185
▁дронів	-2186
▁іва	-2187
мання	-2188
техні	-2189
єктів	-2190
▁туреччи	-2191
ньої	-2192
▁збили	-2193
▁донеччині	-2194
щину	-2195
▁держ	-2196
жди	-2197
▁перемоги	-2198
нули	-2199
▁пока	-2200
▁суспіль	-2201
▁нових	-2202
▁генштаб	-2203
ництва	-2204
▁захисники	-2205
▁пропо	-2206
▁тру	-2207
▁бої	-2208
▁мін	-2209
поста	-2210
▁відклю	-2211
▁~	-2212
кості	-2213
овують	-2214
▁проку	-2215
▁часом	-2216
▁посила	-2217
родонець	-2218
фа	-2219
▁рятуваль	-2220
ництво	-2221
▁федера	-2222
▁особового	-2223
дають	-2224
нено	-2225
▁чис	-2226
▁вою	-2227
азов	-2228
▁зброю	-2229
▁півні	-2230
ay	-2231
бр	-2232
горо	-2233
▁бахмутському	-2234
▁кахов	-2235
▁th	-2236
▁сх	-2237
▁up	-2238
нням	-2239
▁трав	-2240
▁кошти	-2241
▁трима	-2242
▁проце	-2243
рк	-2244
сан	-2245
youtu	-2246
клад	-2247
▁команди	-2248
▁столиці	-2249
рус	-2250
льна	-2251
▁доларів	-2252
▁очільник	-2253
▁ворожих	-2254
ro	-2255
▁місці	-2256
▁віта	-2257
повіда	-2258
ває	-2259
літ	-2260
кування	-2261
▁людина	-2262
▁уря	-2263
▁депута	-2264
▁розпов	-2265
▁народу	-2266
▁обов	-2267
▁чоти	-2268
▁лікарні	-2269
▁найближ	-2270
▁мільйонів	-2271
▁бать	-2272
▁конт	-2273
▁вдалося	-2274
▁ана	-2275
▁висту	-2276
даємо	-2277
▁машин	-2278
▁країні	-2279
▁✊	-2280
▁ух	-2281
ований	-2282
▁бере	-2283
▁закордон	-2284
▁опи	-2285
▁встанов	-2286
▁обладна	-2287
▁працювати	-2288
__	-2289
▁схід	-2290
лах	-2291
▁випу	-2292
▁херсонської	-2293
▁маємо	-2294
стю	-2295
▁тор	-2296
▁ніко	-2297
▁пакет	-2298
▁яке	-2299
стави	-2300
▁закуп	-2301
▁завдання	-2302
▁сол	-2303
▁всім	-2304
▁кін	-2305
динок	-2306
▁громад	-2307
▁регіонах	-2308
чить	-2309
▁200	-2310
▁армія	-2311
▁нього	-2312
▁таких	-2313
▁танки	-2314
годи	-2315
▁постражда	-2316
▁обстріл	-2317
▁анти	-2318
▁подо	-2319
▁маріуполі	-2320
▁командування	-2321
,5	-2322
вим	-2323
▁отримав	-2324
gra	-2325
▁чоловік	-2326
▁ува	-2327
▁бронь	-2328
▁будинку	-2329
▁нашим	-2330
лья	-2331
ску	-2332
тегі	-2333
▁рос	-2334
▁віль	-2335
▁уряд	-2336
ницька	-2337
▁ракетами	-2338
лили	-2339
▁потім	-2340
сила	-2341
вають	-2342
ленні	-2343
україна	-2344
▁відправ	-2345
▁крем	-2346
▁оборон	-2347
▁розвідки	-2348
▁землі	-2349
▁медіа	-2350
▁будинок	-2351
▁далі	-2352
▁куль	-2353
▁ванта	-2354
▁житомир	-2355
▁бата	-2356
▁показа	-2357
дить	-2358
увала	-2359
▁наша	-2360
▁літаків	-2361
ters	-2362
▁обі	-2363
сію	-2364
▁upd	-2365
▁досі	-2366
▁захисників	-2367
▁російську	-2368
спублі	-2369
▁завдали	-2370
▁праців	-2371
▁зер	-2372
як	-2373
тний	-2374
плома	-2375
▁всій	-2376
▁скоро	-2377
▁одні	-2378
▁угрупов	-2379
сня	-2380
лень	-2381
▁двоє	-2382
▁посо	-2383
▁миколає	-2384
постачання	-2385
▁60	-2386
▁спа	-2387
▁метою	-2388
▁ус	-2389
▁останні	-2390
▁шве	-2391
▁2023	-2392
▁водо	-2393
▁намагається	-2394
▁ід	-2395
▁кому	-2396
▁кре	-2397
▁мен	-2398
▁прави	-2399
▁краматор	-2400
▁мешканців	-2401
▁атак	-2402
▁зава	-2403
▁повідомила	-2404
лювати	-2405
16	-2406
гн	-2407
овувати	-2408
нувати	-2409
▁доро	-2410
тимуть	-2411
▁компле	-2412
▁наслідки	-2413
▁наголо	-2414
▁пробле	-2415
ad	-2416
тували	-2417
ради	-2418
▁андрій	-2419
▁компанія	-2420
овою	-2421
голов	-2422
▁замі	-2423
▁європи	-2424
▁громади	-2425
▁роди	-2426
▁воїни	-2427
гре	-2428
▁шу	-2429
▁зая	-2430
робіт	-2431
тичного	-2432
▁олексій	-2433
зви	-2434
жемо	-2435
▁сай	-2436
▁хлоп	-2437
▁злочин	-2438
▁вбив	-2439
▁вини	-2440
▁ґрун	-2441
▁✍	-2442
пев	-2443
овує	-2444
▁міноме	-2445
▁рада	-2446
▁вогню	-2447
▁відсу	-2448
▁незалеж	-2449
▁украи	-2450
▁розслід	-2451
ят	-2452
ent	-2453
▁же	-2454
фран	-2455
ована	-2456
▁гелікоп	-2457
кам	-2458
▁запа	-2459
річний	-2460
▁питан	-2461
▁червня	-2462
▁закордонних	-2463
дами	-2464
▁хмель	-2465
15	-2466
▁уже	-2467
▁вияв	-2468
▁хоро	-2469
▁віднови	-2470
лік	-2471
рам	-2472
▁іран	-2473
▁заступник	-2474
▁розповіда	-2475
ri	-2476
▁дон	-2477
▁заяв	-2478
▁світі	-2479
▁стратегі	-2480
▁харківщині	-2481
ою	-2482
лей	-2483
вець	-2484
огою	-2485
▁усім	-2486
▁загинула	-2487
рак	-2488
▁біз	-2489
▁розу	-2490
▁зробити	-2491
ану	-2492
▁діяль	-2493
▁влучання	-2494
▁республі	-2495
ською	-2496
▁озна	-2497
▁угор	-2498
▁артилерійських	-2499
вели	-2500
▁грив	-2501
повітряна	-2502
▁візи	-2503
▁квар	-2504
▁спри	-2505
▁ранок	-2506
сування	-2507
▁одиниць	-2508
ew	-2509
ско	-2510
▁ши	-2511
▁жов	-2512
▁майбу	-2513
▁оголоше	-2514
гід	-2515
▁весь	-2516
ank	-2517
▁le	-2518
▁тя	-2519
анти	-2520
▁пункти	-2521
▁зусилля	-2522
▁намагаються	-2523
▁діста	-2524
▁відправи	-2525
▁зеленського	-2526
▁зму	-2527
▁попере	-2528
▁теж	-2529
▁рсзв	-2530
▁німеччини	-2531
льну	-2532
▁проси	-2533
жах	-2534
тру	-2535
▁ця	-2536
▁пен	-2537
▁електроенер	-2538
end	-2539
євє	-2540
єте	-2541
щува	-2542
▁якого	-2543
▁обгово	-2544
▁диплома	-2545
▁запрова	-2546
▁техніку	-2547
fo	-2548
охо	-2549
▁декіль	-2550
▁ворож	-2551
▁мирних	-2552
▁ізю	-2553
▁гроші	-2554
▁можливість	-2555
ляр	-2556
▁вклю	-2557
▁поба	-2558
▁тоді	-2559
цями	-2560
▁той	-2561
міщення	-2562
▁залізни	-2563
▁поранені	-2564
чки	-2565
▁вигля	-2566
▁влада	-2567
”,	-2568
▁бю	-2569
▁зві	-2570
▁отриму	-2571
▁громадя	-2572
▁снарядів	-2573
бів	-2574
риста	-2575
▁особли	-2576
▁перший	-2577
▁циф	-2578
▁іно	-2579
▁реактив	-2580
рить	-2581
▁збо	-2582
▁сім	-2583
▁відбува	-2584
▁відзна	-2585
▁евакую	-2586
▁відмови	-2587
євєродонець	-2588
▁✍️	-2589
24	-2590
жів	-2591
ars	-2592
▁поді	-2593
▁свій	-2594
▁закін	-2595
▁дося	-2596
▁виріши	-2597
▁харкова	-2598
▁обладнання	-2599
ям	-2600
▁мом	-2601
▁михай	-2602
▁минулу	-2603
▁уточню	-2604
лабо	-2605
▁зені	-2606
▁контроль	-2607
▁ава	-2608
▁ймовірно	-2609
лих	-2610
▁зда	-2611
▁донба	-2612
▁очіку	-2613
▁територіаль	-2614
▁is	-2615
▁нез	-2616
▁автомобіль	-2617
кації	-2618
▁мага	-2619
▁лиман	-2620
▁кордону	-2621
менше	-2622
бира	-2623
▁країна	-2624
▁нібито	-2625
джа	-2626
ість	-2627
▁зго	-2628
▁35	-2629
лаго	-2630
▁співробіт	-2631
▁🔥	-2632
нує	-2633
хар	-2634
▁прода	-2635
▁парламен	-2636
▁активі	-2637
▁адже	-2638
▁куле	-2639
плення	-2640
▁дрони	-2641
▁звільнення	-2642
гія	-2643
можли	-2644
пустили	-2645
▁завжди	-2646
▁ну	-2647
теро	-2648
▁отримати	-2649
чають	-2650
▁поз	-2651
▁слов	-2652
▁угруповання	-2653
▁сєвєродонець	-2654
зві	-2655
▁іні	-2656
▁нашій	-2657
▁випадок	-2658
com	-2659
веде	-2660
▁ось	-2661
станови	-2662
▁різних	-2663
біж	-2664
ляти	-2665
▁бор	-2666
▁сторо	-2667
▁началь	-2668
▁нічого	-2669
лити	-2670
няти	-2671
▁боку	-2672
▁партн	-2673
▁облас	-2674
▁свого	-2675
▁станції	-2676
строва	-2677
▁великої	-2678
▁невідом	-2679
▁мобіліза	-2680
▁українська	-2681
ber	-2682
крі	-2683
▁води	-2684
▁винищува	-2685
▁виді	-2686
▁одно	-2687
▁суму	-2688
▁тисячі	-2689
▁британ	-2690
тури	-2691
▁питань	-2692
ав	-2693
тня	-2694
найменше	-2695
▁повідомлення	-2696
нува	-2697
▁групи	-2698
▁лінії	-2699
13	-2700
овими	-2701
▁стрі	-2702
▁засід	-2703
▁запу	-2704
▁попри	-2705
▁черка	-2706
▁продук	-2707
джу	-2708
▁дів	-2709
▁союз	-2710
дах	-2711
лич	-2712
▁чле	-2713
ньому	-2714
▁силами	-2715
▁херсона	-2716
тне	-2717
▁коридо	-2718
▁загинуло	-2719
ца	-2720
дово	-2721
▁пала	-2722
▁роби	-2723
2.	-2724
ob	-2725
▁матеріа	-2726
▁чита	-2727
▁військову	-2728
▁центру	-2729
▁тривоги	-2730
▁ніколи	-2731
нила	-2732
спіта	-2733
▁захво	-2734
сьогодні	-2735
▁низ	-2736
▁жаль	-2737
жувати	-2738
▁мілья	-2739
▁проведення	-2740
нка	-2741
▁піш	-2742
франків	-2743
тримання	-2744
💙💛	-2745
йно	-2746
▁розви	-2747
▁техніка	-2748
▁харкові	-2749
▁оперативно	-2750
▁верхов	-2751
▁аес	-2752
▁нега	-2753
▁свід	-2754
жні	-2755
▁сту	-2756
▁вули	-2757
оми	-2758
▁допом	-2759
▁боєприпаси	-2760
▁влади	-2761
▁центра	-2762
чила	-2763
▁орі	-2764
▁рей	-2765
▁щонайменше	-2766
уть	-2767
▁єди	-2768
чено	-2769
▁кан	-2770
▁кири	-2771
▁рівня	-2772
комен	-2773
против	-2774
▁будемо	-2775
▁світла	-2776
▁місяців	-2777
▁засоби	-2778
нг	-2779
▁бою	-2780
▁чорно	-2781
▁відвід	-2782
▁нагадаємо	-2783
тк	-2784
▁това	-2785
▁броне	-2786
▁збір	-2787
▁єв	-2788
південь	-2789
▁розгля	-2790
кад	-2791
увань	-2792
▁полтав	-2793
▁знаходи	-2794
рово	-2795
▁долу	-2796
▁залу	-2797
▁робити	-2798
▁планують	-2799
▁ураження	-2800
люють	-2801
▁українським	-2802
чати	-2803
▁зне	-2804
▁реаль	-2805
тування	-2806
▁пункту	-2807
▁міг	-2808
▁что	-2809
▁російськими	-2810
вс	-2811
вій	-2812
таш	-2813
▁гі	-2814
▁протиповітря	-2815
опера	-2816
▁розумі	-2817
пити	-2818
▁кам	-2819
▁льв	-2820
▁багать	-2821
▁почали	-2822
▁зник	-2823
▁запорізькій	-2824
▁500	-2825
▁радіо	-2826
▁отримала	-2827
▁продовжи	-2828
▁гаран	-2829
▁однак	-2830
зії	-2831
васто	-2832
▁разів	-2833
▁щодня	-2834
ніз	-2835
▁36	-2836
шній	-2837
нування	-2838
▁комплекс	-2839
тво	-2840
▁фей	-2841
▁перш	-2842
▁танк	-2843
▁робота	-2844
▁районів	-2845
єл	-2846
▁перебувають	-2847
am	-2848
▁нор	-2849
зно	-2850
▁гривень	-2851
сні	-2852
▁права	-2853
▁надання	-2854
брати	-2855
дай	-2856
нені	-2857
▁липня	-2858
▁частина	-2859
штов	-2860
▁бердян	-2861
▁здоров	-2862
▁планує	-2863
▁севасто	-2864
для	-2865
▁звернення	-2866
▁забезпечення	-2867
▁i	-2868
ститу	-2869
▁перші	-2870
▁житлові	-2871
гвар	-2872
▁трьох	-2873
▁всього	-2874
▁колабо	-2875
▁поранено	-2876
▁we	-2877
▁одну	-2878
▁част	-2879
ційного	-2880
бан	-2881
▁вза	-2882
дення	-2883
▁цілі	-2884
▁поліції	-2885
бав	-2886
рад	-2887
ктив	-2888
разу	-2889
▁кримі	-2890
▁усе	-2891
перше	-2892
▁окремо	-2893
▁термін	-2894
▁вивез	-2895
▁подаль	-2896
▁віталій	-2897
▁написав	-2898
▁€	-2899
▁сели	-2900
▁івано	-2901
▁опублі	-2902
▁місцевих	-2903
▁посиланням	-2904
жно	-2905
нув	-2906
стом	-2907
ціях	-2908
ранці	-2909
▁разі	-2910
ційний	-2911
▁доступ	-2912
▁пав	-2913
▁тижня	-2914
▁інозем	-2915
бом	-2916
▁допомога	-2917
▁інформації	-2918
▁велика	-2919
▁будівлі	-2920
▁розповів	-2921
▁евакуації	-2922
▁цивільного	-2923
лд	-2924
▁одесі	-2925
росіяни	-2926
▁одному	-2927
▁наступу	-2928
мор	-2929
▁оскільки	-2930
▁окупантами	-2931
▁(+1	-2932
▁our	-2933
▁російським	-2934
▁э	-2935
тету	-2936
▁київщині	-2937
сами	-2938
бовців	-2939
хто	-2940
▁черво	-2941
▁оборону	-2942
▁впа	-2943
▁лит	-2944
▁рух	-2945
▁недо	-2946
харків	-2947
▁окрім	-2948
▁стату	-2949
▁ек	-2950
▁авіації	-2951
▁батальйо	-2952
вом	-2953
▁пло	-2954
▁шко	-2955
ційної	-2956
▁радник	-2957
▁👀	-2958
лює	-2959
мікад	-2960
▁уряду	-2961
▁нашого	-2962
▁он	-2963
▁зву	-2964
мікадзе	-2965
▁прі	-2966
▁дета	-2967
звичай	-2968
▁стати	-2969
”.	-2970
gram	-2971
▁ціка	-2972
ватися	-2973
▁агресо	-2974
спіталіз	-2975
лер	-2976
сою	-2977
▁газ	-2978
▁мільяр	-2979
нію	-2980
шніх	-2981
▁ранку	-2982
▁ґрунт	-2983
▁організації	-2984
ill	-2985
нта	-2986
рен	-2987
тяг	-2988
▁ода	-2989
▁резні	-2990
▁багатьох	-2991
▁військового	-2992
▁зосередження	-2993
▁обіця	-2994
▁готові	-2995
▁перемогу	-2996
ukraine	-2997
36	-2998
лем	-2999
▁пожежа	-3000
▁неможли	-3001
чих	-3002
мати	-3003
річна	-3004
ємося	-3005
нопіль	-3006
▁непо	-3007
▁пише	-3008
▁відбили	-3009
▁максима	-3010
сім	-3011
▁вчи	-3012
торів	-3013
▁дени	-3014
охорон	-3015
ровоград	-3016
▁кожного	-3017
▁київській	-3018
▁терористи	-3019
▁володимира	-3020
▁використання	-3021
▁вну	-3022
▁зміни	-3023
▁комплек	-3024
▁частину	-3025
▁херсонщини	-3026
гла	-3027
бард	-3028
▁секре	-3029
.00	-3030
uss	-3031
стя	-3032
сичан	-3033
▁діти	-3034
▁експер	-3035
▁криміналь	-3036
▁пан	-3037
▁запи	-3038
▁улам	-3039
окупанти	-3040
вести	-3041
▁зайня	-3042
▁центр	-3043
▁мето	-3044
▁заходи	-3045
▁числі	-3046
▁прийня	-3047
70	-3048
ha	-3049
▁заес	-3050
камікадзе	-3051
▁de	-3052
▁якому	-3053
мів	-3054
шно	-3055
▁смі	-3056
▁січ	-3057
▁пояс	-3058
▁викра	-3059
▁ремон	-3060
▁ініціа	-3061
▁допомогою	-3062
▁моря	-3063
▁адміністрації	-3064
галі	-3065
ступу	-3066
▁каза	-3067
▁сте	-3068
▁дніп	-3069
40	-3070
os	-3071
45	-3072
ly	-3073
▁70	-3074
▁більші	-3075
▁вимага	-3076
▁допомогти	-3077
2022	-3078
зили	-3079
йшов	-3080
хе	-3081
▁y	-3082
▁80	-3083
▁ір	-3084
стами	-3085
▁2014	-3086
стре	-3087
▁учас	-3088
▁незакон	-3089
▁харківської	-3090
▁кор	-3091
біліз	-3092
▁каже	-3093
▁раху	-3094
▁форму	-3095
▁підозру	-3096
▁декілька	-3097
▁атакували	-3098
▁руйнування	-3099
карпа	-3100
▁хочуть	-3101
бою	-3102
пут	-3103
сур	-3104
літа	-3105
▁залишається	-3106
слу	-3107
мара	-3108
стопа	-3109
▁години	-3110
▁обмеження	-3111
йтеся	-3112
бувати	-3113
▁зазнали	-3114
гно	-3115
▁31	-3116
▁24.0	-3117
▁ворожі	-3118
▁політи	-3119
▁колаборан	-3120
▁зверну	-3121
▁контрна	-3122
▁перебуває	-3123
▁рятувальники	-3124
гар	-3125
▁тяж	-3126
▁фін	-3127
▁вересня	-3128
▁листопа	-3129
▁олег	-3130
▁рашист	-3131
рію	-3132
▁чого	-3133
▁жінка	-3134
▁зроби	-3135
▁поверта	-3136
90	-3137
ята	-3138
шити	-3139
▁300	-3140
▁внутрі	-3141
▁надати	-3142
▁окупації	-3143
наві	-3144
▁слу	-3145
▁укр	-3146
шнього	-3147
кував	-3148
▁шука	-3149
▁демон	-3150
▁тиждень	-3151
▁займа	-3152
▁сполу	-3153
▁вдарили	-3154
now	-3155
гір	-3156
пас	-3157
геро	-3158
▁доб	-3159
▁теп	-3160
▁постав	-3161
▁фронті	-3162
▁білорусь	-3163
▁заборони	-3164
лін	-3165
▁лисичан	-3166
▁поліція	-3167
▁ситуацію	-3168
▁міжнародного	-3169
цу	-3170
кову	-3171
▁вида	-3172
▁троє	-3173
▁авіація	-3174
▁створення	-3175
▁+	-3176
цький	-3177
▁info	-3178
енерго	-3179
новини	-3180
▁j	-3181
пив	-3182
▁олі	-3183
калі	-3184
▁лав	-3185
дночас	-3186
▁правоохорон	-3187
носи	-3188
▁ухвали	-3189
▁засу	-3190
сподар	-3191
▁вряту	-3192
▁завтра	-3193
▁місцеві	-3194
вк	-3195
▁бєл	-3196
▁іван	-3197
ходить	-3198
▁верто	-3199
▁причи	-3200
▁військовий	-3201
кти	-3202
▁аль	-3203
▁васи	-3204
▁демо	-3205
▁передба	-3206
80	-3207
▁пого	-3208
буд	-3209
бій	-3210
мере	-3211
рати	-3212
▁цим	-3213
▁десан	-3214
живання	-3215
▁позицій	-3216
▁спільно	-3217
▁протиповітряної	-3218
oo	-3219
кох	-3220
ненні	-3221
єктах	-3222
▁обстрілами	-3223
▁мав	-3224
рівка	-3225
▁есто	-3226
▁молд	-3227
▁біжен	-3228
▁таким	-3229
▁встанови	-3230
▁застосування	-3231
мії	-3232
▁гай	-3233
дніпро	-3234
▁підір	-3235
▁умова	-3236
▁автобу	-3237
▁бомбард	-3238
▁харківській	-3239
фону	-3240
▁села	-3241
▁додав	-3242
▁приват	-3243
▁росіянами	-3244
▁пошкоджені	-3245
▁вічна	-3246
▁резер	-3247
азовста	-3248
▁промис	-3249
▁європі	-3250
▁франції	-3251
uters	-3252
▁зберіга	-3253
-5	-3254
▁вбили	-3255
▁контра	-3256
сю	-3257
▁90	-3258
▁зустрічі	-3259
99	-3260
▁всю	-3261
▁зал	-3262
▁заго	-3263
▁речі	-3264
▁розі	-3265
▁відповідь	-3266
тві	-3267
▁ra	-3268
▁навча	-3269
▁мобіль	-3270
▁нікополь	-3271
▁зруйновано	-3272
▁іме	-3273
▁вранці	-3274
нику	-3275
кових	-3276
тська	-3277
ованої	-3278
60	-3279
жжі	-3280
▁зні	-3281
▁типу	-3282
▁заявила	-3283
▁кожному	-3284
44	-3285
пц	-3286
▁тон	-3287
▁газу	-3288
ватиме	-3289
дерлан	-3290
чимо	-3291
▁виклю	-3292
▁спост	-3293
▁почина	-3294
▁поширю	-3295
▁чотири	-3296
▁спі	-3297
▁волин	-3298
▁захист	-3299
раї	-3300
▁шлях	-3301
▁кінця	-3302
▁літаки	-3303
▁закликав	-3304
▁взя	-3305
вагн	-3306
лена	-3307
▁дире	-3308
ut	-3309
▁✅	-3310
лить	-3311
▁рівнен	-3312
▁держава	-3313
▁більшість	-3314
▁ефе	-3315
▁осві	-3316
▁часу	-3317
▁законо	-3318
зер	-3319
чук	-3320
▁рам	-3321
opard	-3322
плати	-3323
▁ареш	-3324
▁громадяни	-3325
йде	-3326
▁вд	-3327
▁жа	-3328
▁уз	-3329
стерн	-3330
▁кордон	-3331
▁захопле	-3332
▁водночас	-3333
мих	-3334
нати	-3335
▁баз	-3336
▁жор	-3337
ходять	-3338
▁послу	-3339
дужа	-3340
жить	-3341
ation	-3342
▁міні	-3343
дяться	-3344
▁росси	-3345
▁головне	-3346
▁злочини	-3347
▁знайшли	-3348
тр	-3349
шенко	-3350
ig	-3351
wi	-3352
рок	-3353
чий	-3354
різь	-3355
▁сим	-3356
▁виїха	-3357
▁китай	-3358
▁полон	-3359
▁дитина	-3360
▁reuters	-3361
▁основні	-3362
▁операції	-3363
бто	-3364
дому	-3365
▁ней	-3366
▁цер	-3367
▁прид	-3368
▁стало	-3369
▁федерації	-3370
⤵️	-3371
шки	-3372
▁53	-3373
▁пас	-3374
▁людя	-3375
▁миру	-3376
гонь	-3377
▁такий	-3378
▁дружи	-3379
17	-3380
бой	-3381
жень	-3382
▁воїнів	-3383
▁зросла	-3384
▁ракетний	-3385
тет	-3386
орди	-3387
▁оці	-3388
▁мета	-3389
▁стані	-3390
▁німеччина	-3391
жан	-3392
реє	-3393
▁45	-3394
▁видання	-3395
);	-3396
ww	-3397
російські	-3398
▁електроенергії	-3399
тій	-3400
▁ефі	-3401
▁leopard	-3402
▁загарбники	-3403
сок	-3404
чим	-3405
зумі	-3406
лова	-3407
рора	-3408
▁цін	-3409
▁одне	-3410
▁напри	-3411
▁байден	-3412
▁донецька	-3413
▁співпрацю	-3414
▁авдіївському	-3415
▁аб	-3416
тора	-3417
▁ранк	-3418
▁набли	-3419
нському	-3420
▁луганщині	-3421
▁багатоповер	-3422
▁пл	-3423
діва	-3424
▁йде	-3425
▁жовтня	-3426
▁дякуємо	-3427
жив	-3428
щен	-3429
стві	-3430
щодав	-3431
▁вогонь	-3432
▁частини	-3433
▁знищення	-3434
19	-3435
ace	-3436
укр	-3437
уваль	-3438
▁вперше	-3439
▁підписа	-3440
▁зи	-3441
▁забло	-3442
▁літак	-3443
▁пункт	-3444
▁момент	-3445
▁критичної	-3446
цях	-3447
▁37	-3448
▁сів	-3449
▁варті	-3450
▁влучили	-3451
▁станови	-3452
▁злочинів	-3453
пен	-3454
денні	-3455
янському	-3456
▁повинні	-3457
▁історії	-3458
12	-3459
мар	-3460
овому	-3461
▁помі	-3462
▁ігор	-3463
▁нафто	-3464
▁телемара	-3465
гне	-3466
ями	-3467
▁таке	-3468
▁завдала	-3469
▁запорізька	-3470
▁результаті	-3471
тичних	-3472
▁стала	-3473
▁ракета	-3474
▁донецькому	-3475
▁new	-3476
▁дитя	-3477
▁ізюм	-3478
▁додому	-3479
▁загарбників	-3480
няє	-3481
тків	-3482
▁бре	-3483
заліз	-3484
тальних	-3485
▁попередні	-3486
▁відключення	-3487
un	-3488
▁дум	-3489
лісти	-3490
▁ката	-3491
▁розслідування	-3492
сер	-3493
чевид	-3494
▁наяв	-3495
кували	-3496
▁важливо	-3497
▁заявили	-3498
дою	-3499
▁конц	-3500
▁роки	-3501
▁деталі	-3502
▁потребу	-3503
▁мвс	-3504
▁плр	-3505
▁іра	-3506
▁коре	-3507
▁ніхто	-3508
▁гайдай	-3509
▁дніпрі	-3510
▁республіки	-3511
▁/	-3512
бере	-3513
довж	-3514
київ	-3515
▁країну	-3516
▁місяці	-3517
▁райони	-3518
увач	-3519
чать	-3520
▁гір	-3521
▁вибо	-3522
▁крилаті	-3523
▁особливо	-3524
▁військовим	-3525
▁населеного	-3526
вно	-3527
тбо	-3528
▁хі	-3529
onob	-3530
лега	-3531
язково	-3532
▁аерод	-3533
▁русня	-3534
onobank	-3535
▁умовах	-3536
▁закупів	-3537
▁нещодав	-3538
▁організ	-3539
▁чі	-3540
щенко	-3541
▁канал	-3542
▁парті	-3543
▁січня	-3544
▁кулеба	-3545
▁нового	-3546
▁житлових	-3547
мок	-3548
сли	-3549
пили	-3550
▁цій	-3551
▁шев	-3552
▁ведення	-3553
▁загроза	-3554
▁зможуть	-3555
бами	-3556
▁бізнес	-3557
▁високо	-3558
▁рівень	-3559
▁al	-3560
▁ща	-3561
-300	-3562
▁вір	-3563
▁тех	-3564
▁спис	-3565
▁ворожий	-3566
▁допомагає	-3567
▁ув	-3568
▁нази	-3569
▁містах	-3570
▁нідерлан	-3571
▁кіровоград	-3572
▁можливості	-3573
доб	-3574
цей	-3575
▁витра	-3576
▁збере	-3577
▁деяких	-3578
▁масштаб	-3579
▁система	-3580
▁передати	-3581
▁пропагандист	-3582
тичні	-3583
▁конф	-3584
▁мали	-3585
▁приз	-3586
▁друзі	-3587
▁транспорт	-3588
▁інфраструктуру	-3589
▁un	-3590
сять	-3591
▁кер	-3592
▁годин	-3593
▁гау	-3594
▁джо	-3595
коштов	-3596
пового	-3597
▁бюдже	-3598
▁прапо	-3599
▁півдні	-3600
▁розташ	-3601
▁фінлян	-3602
▁переможемо	-3603
рін	-3604
шен	-3605
▁спи	-3606
▁федо	-3607
▁юрій	-3608
▁денис	-3609
▁33	-3610
тіли	-3611
▁зрк	-3612
▁тож	-3613
▁зареє	-3614
▁грудня	-3615
▁хоча	-3616
▁персо	-3617
▁коорди	-3618
▁десятки	-3619
фри	-3620
сихо	-3621
сувати	-3622
▁благо	-3623
▁деякі	-3624
ost	-3625
▁соц	-3626
▁нині	-3627
▁стар	-3628
▁суду	-3629
▁автів	-3630
▁міністерство	-3631
18	-3632
▁@	-3633
▁наза	-3634
▁польща	-3635
▁коронаві	-3636
▁відбувається	-3637
комі	-3638
ованого	-3639
жити	-3640
▁вдя	-3641
лівка	-3642
▁сайті	-3643
▁солда	-3644
▁електри	-3645
▁приєдна	-3646
▁телегра	-3647
▁безпілотників	-3648
ess	-3649
▁жі	-3650
лови	-3651
чого	-3652
▁дума	-3653
▁пері	-3654
▁філь	-3655
▁сотні	-3656
▁закарпа	-3657
▁тернопіль	-3658
▁ал	-3659
вари	-3660
тера	-3661
льства	-3662
▁герої	-3663
▁приму	-3664
▁медвед	-3665
▁відповіда	-3666
▁повітряної	-3667
гожи	-3668
imars	-3669
стити	-3670
▁2021	-3671
▁анто	-3672
▁дове	-3673
▁закон	-3674
▁мережі	-3675
▁серпня	-3676
▁міський	-3677
▁марш	-3678
▁відді	-3679
▁стане	-3680
▁здійснив	-3681
сов	-3682
льне	-3683
блять	-3684
▁меха	-3685
▁симво	-3686
▁ситуації	-3687
ттє	-3688
тує	-3689
▁ху	-3690
▁неї	-3691
▁завдав	-3692
▁михайло	-3693
▁національної	-3694
▁повномасштабної	-3695
лії	-3696
чір	-3697
▁клі	-3698
▁ризи	-3699
▁щось	-3700
▁безкоштов	-3701
▁зов	-3702
▁план	-3703
▁напря	-3704
мм	-3705
тий	-3706
▁стали	-3707
▁повітряні	-3708
хан	-3709
ворог	-3710
нують	-3711
▁плат	-3712
▁собі	-3713
▁бахмута	-3714
▁керівник	-3715
▁офіційно	-3716
ak	-3717
-10	-3718
лайн	-3719
▁моло	-3720
▁сівер	-3721
▁достав	-3722
вши	-3723
коло	-3724
добро	-3725
нений	-3726
▁чином	-3727
▁ізраї	-3728
▁мов	-3729
▁менше	-3730
мовля	-3731
тність	-3732
▁сучас	-3733
▁заради	-3734
▁листопада	-3735
систе	-3736
▁виробництва	-3737
est	-3738
▁💙💛	-3739
діть	-3740
▁гес	-3741
кової	-3742
▁піхо	-3743
▁серйо	-3744
▁спору	-3745
язок	-3746
ційна	-3747
▁нову	-3748
ukrainenow	-3749
▁використовувати	-3750
%.	-3751
сло	-3752
сій	-3753
тнє	-3754
▁бори	-3755
▁дода	-3756
цистерн	-3757
▁батьків	-3758
▁завалів	-3759
▁київська	-3760
▁повідомленні	-3761
▁ресур	-3762
▁своєму	-3763
▁окремої	-3764
▁британія	-3765
▁залпового	-3766
юк	-3767
римо	-3768
чених	-3769
▁впли	-3770
▁оста	-3771
▁південно	-3772
▁госпіталіз	-3773
ac	-3774
вало	-3775
▁зга	-3776
▁зітк	-3777
▁група	-3778
▁сподіва	-3779
▁окупантам	-3780
ния	-3781
send	-3782
тифі	-3783
▁подя	-3784
▁землю	-3785
▁свободу	-3786
▁засідання	-3787
▁уточнюється	-3788
▁гар	-3789
▁річ	-3790
▁така	-3791
▁президентом	-3792
▁38	-3793
джує	-3794
рина	-3795
▁аеро	-3796
▁ними	-3797
бування	-3798
▁партії	-3799
▁крилатих	-3800
▁окупованого	-3801
ют	-3802
лку	-3803
▁лег	-3804
▁himars	-3805
▁дитини	-3806
▁участі	-3807
фон	-3808
▁пвк	-3809
зації	-3810
тував	-3811
▁готов	-3812
monobank	-3813
▁установ	-3814
▁чорного	-3815
▁минулого	-3816
▁броньованих	-3817
▁лів	-3818
▁орієн	-3819
▁німець	-3820
▁українцям	-3821
75	-3822
єва	-3823
▁32	-3824
тної	-3825
▁глава	-3826
▁точно	-3827
чається	-3828
▁перева	-3829
▁охорони	-3830
▁ракетні	-3831
▁снаряди	-3832
▁київської	-3833
jar	-3834
цент	-3835
▁залишайтесь	-3836
▁представник	-3837
лець	-3838
чним	-3839
чува	-3840
▁азов	-3841
▁варто	-3842
лий	-3843
▁кажуть	-3844
кци	-3845
тир	-3846
▁член	-3847
▁одеси	-3848
▁свято	-3849
▁сході	-3850
▁вы	-3851
зупи	-3852
▁впев	-3853
стувань	-3854
▁місяць	-3855
▁розвідка	-3856
▁запоріжжі	-3857
hel	-3858
ние	-3859
▁пара	-3860
▁своєї	-3861
▁імені	-3862
▁нацгвар	-3863
▁населені	-3864
▁донецькій	-3865
пол	-3866
кров	-3867
▁помер	-3868
ференду	-3869
▁одразу	-3870
▁дістали	-3871
▁ефектив	-3872
▁оголошена	-3873
▁автоцистерн	-3874
▁херсонській	-3875
гання	-3876
▁тіла	-3877
▁заходів	-3878
бай	-3879
рійсь	-3880
▁церк	-3881
▁місцях	-3882
▁інститу	-3883
▁росіянам	-3884
▁українську	-3885
▁харківська	-3886
▁пев	-3887
▁обра	-3888
▁нагоро	-3889
▁міжнародних	-3890
76	-3891
▁▫	-3892
▁li	-3893
▁on	-3894
запо	-3895
діння	-3896
▁приче	-3897
▁супут	-3898
▁зазнав	-3899
▁корист	-3900
▁маршру	-3901
▁фронту	-3902
▁руйнувань	-3903
▁підтвердже	-3904
▁34	-3905
▁it	-3906
▁ке	-3907
єкту	-3908
▁шля	-3909
прово	-3910
▁яким	-3911
катери	-3912
▁окупованій	-3913
▁повернення	-3914
:30	-3915
▁▫️	-3916
ереди	-3917
▁друго	-3918
▁фронт	-3919
▁підтримка	-3920
▁херсонська	-3921
lo	-3922
нуть	-3923
панії	-3924
▁be	-3925
ійни	-3926
▁пунктах	-3927
поло	-3928
раке	-3929
▁вра	-3930
герої	-3931
▁ворогом	-3932
▁боротьби	-3933
дніпропетров	-3934
ele	-3935
▁показ	-3936
▁можемо	-3937
президен	-3938
rn	-3939
hed	-3940
омі	-3941
сум	-3942
шої	-3943
ляли	-3944
▁ано	-3945
▁will	-3946
єд	-3947
ніка	-3948
▁веде	-3949
▁логі	-3950
▁мені	-3951
дужало	-3952
▁патрі	-3953
▁мобіліз	-3954
▁соціаль	-3955
ливо	-3956
▁виявили	-3957
▁захворю	-3958
1,	-3959
▁wh	-3960
▁лука	-3961
▁якої	-3962
▁авіау	-3963
▁потен	-3964
▁рубіж	-3965
▁компаній	-3966
ag	-3967
▁бе	-3968
▁тем	-3969
хання	-3970
▁могли	-3971
▁італі	-3972
▁нашому	-3973
▁утриму	-3974
▁просимо	-3975
▁транспорту	-3976
дри	-3977
▁пошу	-3978
▁дівчи	-3979
▁латві	-3980
▁центрі	-3981
▁механіз	-3982
▁потрапили	-3983
▁л	-3984
ens	-3985
цем	-3986
дила	-3987
▁вами	-3988
▁наше	-3989
▁волонтер	-3990
▁проблеми	-3991
тиву	-3992
▁люд	-3993
чувати	-3994
▁дослід	-3995
▁додаткові	-3996
▁лиманському	-3997
▁підприємства	-3998
▁ночі	-3999
▁стосу	-4000
солю	-4001
▁бійців	-4002
▁велико	-4003
▁успіху	-4004
▁генерал	-4005
кати	-4006
стян	-4007
торії	-4008
▁чехі	-4009
▁потреби	-4010
74	-4011
нет	-4012
сити	-4013
таго	-4014
▁опо	-4015
▁поїз	-4016
▁предме	-4017
▁використа	-4018
up	-4019
воль	-4020
тому	-4021
▁ним	-4022
нівка	-4023
▁офісу	-4024
▁звичай	-4025
▁посилення	-4026
вя	-4027
ос	-4028
люд	-4029
▁зс	-4030
овій	-4031
▁ukrain	-4032
▁істори	-4033
▁найбільше	-4034
▁ліквідовано	-4035
ul	-4036
▁аген	-4037
▁поля	-4038
▁жінок	-4039
▁приватних	-4040
▁проросійсь	-4041
графі	-4042
лений	-4043
▁приле	-4044
▁агресію	-4045
▁затримали	-4046
▁луганська	-4047
▁артилерійські	-4048
ail	-4049
▁ля	-4050
несли	-4051
▁виво	-4052
▁тонн	-4053
техніки	-4054
▁вважає	-4055
▁прибли	-4056
▁експорт	-4057
▁терміново	-4058
▁російському	-4059
👇🏻	-4060
▁джон	-4061
▁розроб	-4062
▁загальні	-4063
▁мінометів	-4064
▁наголосив	-4065
▁нещодавно	-4066
▁pat	-4067
▁поці	-4068
▁постійно	-4069
ски	-4070
▁прис	-4071
▁тощо	-4072
▁повернути	-4073
ходу	-4074
чною	-4075
▁сла	-4076
куйте	-4077
▁зможе	-4078
▁активно	-4079
▁скільки	-4080
▁пошкодження	-4081
▁представників	-4082
2,	-4083
тура	-4084
важли	-4085
форму	-4086
▁мало	-4087
▁склади	-4088
сб	-4089
ленко	-4090
▁бійці	-4091
▁пожежі	-4092
▁кораблі	-4093
▁призупи	-4094
▁постраждало	-4095
стат	-4096
▁зрозумі	-4097
▁систему	-4098
▁💪	-4099
зує	-4100
крила	-4101
ючись	-4102
▁нашими	-4103
▁переговори	-4104
▁таку	-4105
▁вакци	-4106
▁читайте	-4107
▁багатоповерхів	-4108
▁ані	-4109
hahed	-4110
▁змен	-4111
▁порту	-4112
▁абсолю	-4113
▁збройні	-4114
▁методом	-4115
тактичного	-4116
▁партнерів	-4117
проку	-4118
▁нова	-4119
▁ефірі	-4120
▁онлайн	-4121
▁інстру	-4122
▁вантажів	-4123
фи	-4124
▁нар	-4125
▁погро	-4126
▁надзвичай	-4127
▁результати	-4128
▁підтримує	-4129
нд	-4130
ver	-4131
вин	-4132
зити	-4133
▁стри	-4134
▁дивер	-4135
▁режим	-4136
▁згодом	-4137
▁чернівець	-4138
▁автомобільної	-4139
чка	-4140
трів	-4141
▁відбуд	-4142
▁зустріч	-4143
▁діяльність	-4144
▁упц	-4145
▁умови	-4146
▁освіти	-4147
руп	-4148
цен	-4149
tter	-4150
рять	-4151
▁air	-4152
зують	-4153
ціями	-4154
▁норма	-4155
▁поїзд	-4156
▁найкра	-4157
▁частині	-4158
ap	-4159
тка	-4160
▁43	-4161
.2022	-4162
льоти	-4163
тують	-4164
чному	-4165
▁вулиці	-4166
▁зброєю	-4167
▁зруйну	-4168
▁державного	-4169
▁коронавірус	-4170
▁z	-4171
▁55	-4172
▁прису	-4173
▁бахмуті	-4174
▁соцмере	-4175
гий	-4176
▁39	-4177
▁япо	-4178
стрів	-4179
▁скас	-4180
▁новому	-4181
▁рамках	-4182
▁❤	-4183
тна	-4184
гідно	-4185
ємось	-4186
▁ліка	-4187
щувати	-4188
▁графі	-4189
▁пентаго	-4190
мою	-4191
ктора	-4192
▁магази	-4193
▁минулої	-4194
▁миколаєві	-4195
▁46	-4196
▁pr	-4197
ноци	-4198
сажи	-4199
▁замов	-4200
▁взагалі	-4201
▁господар	-4202
▁орієнтов	-4203
▁неможливо	-4204
▁авіаційних	-4205
▁спостеріга	-4206
кза	-4207
міну	-4208
▁зрад	-4209
▁клич	-4210
▁суттє	-4211
▁техно	-4212
▁євросою	-4213
рей	-4214
щук	-4215
▁⚡️⚡️	-4216
▁вибуху	-4217
▁створю	-4218
▁рекомен	-4219
дру	-4220
крес	-4221
▁кла	-4222
увага	-4223
льотів	-4224
▁придба	-4225
▁спроби	-4226
▁швидко	-4227
▁бригада	-4228
▁попов	-4229
▁радян	-4230
одужало	-4231
▁зібрали	-4232
▁постави	-4233
▁продово	-4234
луна	-4235
чука	-4236
шуть	-4237
тивна	-4238
▁сухо	-4239
▁нагаду	-4240
▁приїха	-4241
▁приватні	-4242
▁обстріляв	-4243
▁шах	-4244
летальних	-4245
▁керівника	-4246
чої	-4247
▁мати	-4248
▁поле	-4249
команд	-4250
▁живої	-4251
▁пролуна	-4252
▁уразили	-4253
▁приблизно	-4254
▁російською	-4255
▁моно	-4256
▁покара	-4257
▁події	-4258
▁житловий	-4259
▁зупинити	-4260
▁намагався	-4261
ie	-4262
кта	-4263
▁фсб	-4264
▁іде	-4265
тичну	-4266
▁полону	-4267
▁ворожої	-4268
▁демокра	-4269
▁засобів	-4270
▁сло	-4271
додні	-4272
кують	-4273
лійсь	-4274
▁атом	-4275
▁кого	-4276
▁руху	-4277
тичний	-4278
▁прямо	-4279
▁розгор	-4280
▁окремих	-4281
▁спецслуж	-4282
▁відновити	-4283
▁туреччини	-4284
▁севастополя	-4285
and	-4286
ксу	-4287
лія	-4288
нбо	-4289
▁цілей	-4290
all	-4291
вому	-4292
▁ракету	-4293
▁негайно	-4294
▁підозрю	-4295
▁позиціях	-4296
▁знаходиться	-4297
nn	-4298
ry	-4299
сом	-4300
чує	-4301
▁знахо	-4302
бойовий	-4303
▁геноци	-4304
▁очевид	-4305
▁автомобі	-4306
▁здійснили	-4307
▁енергетики	-4308
▁залишаються	-4309
дух	-4310
▁48	-4311
тома	-4312
ційно	-4313
▁разу	-4314
▁краще	-4315
▁футбо	-4316
▁партне	-4317
▁шевчен	-4318
▁звільнили	-4319
▁міністерства	-4320
▁телемарафону	-4321
йшла	-4322
стам	-4323
▁бмп	-4324
▁петро	-4325
▁коштів	-4326
▁федоров	-4327
▁бєлгород	-4328
▁працівників	-4329
ers	-4330
ish	-4331
фін	-4332
▁жо	-4333
▁400	-4334
▁гла	-4335
▁дез	-4336
▁уго	-4337
вався	-4338
▁поми	-4339
▁рнбо	-4340
▁кількох	-4341
▁промисл	-4342
▁воєнного	-4343
франківська	-4344
▁військовополо	-4345
кро	-4346
▁68	-4347
тили	-4348
транс	-4349
▁ваго	-4350
▁волі	-4351
колаїв	-4352
▁вечір	-4353
▁підви	-4354
▁звинува	-4355
▁політики	-4356
▁54	-4357
жать	-4358
▁дово	-4359
▁намі	-4360
▁сигна	-4361
▁заводу	-4362
▁замість	-4363
▁розвідува	-4364
пав	-4365
▁сф	-4366
танк	-4367
▁диві	-4368
▁дові	-4369
▁наді	-4370
▁прова	-4371
▁поліцей	-4372
▁виконання	-4373
нем	-4374
рою	-4375
демії	-4376
порта	-4377
янськ	-4378
▁золо	-4379
▁людям	-4380
▁ворогу	-4381
▁збільши	-4382
▁захищати	-4383
▁культури	-4384
бойовийдух	-4385
▁підтримувати	-4386
зів	-4387
ніс	-4388
▁вве	-4389
▁морі	-4390
▁норве	-4391
▁сусід	-4392
▁вважають	-4393
▁ініціати	-4394
▁приміщення	-4395
▁боєприпасами	-4396
▁представники	-4397
ec	-4398
вич	-4399
він	-4400
зсу	-4401
▁кім	-4402
▁руму	-4403
▁твіт	-4404
▁трен	-4405
▁збито	-4406
▁канди	-4407
▁новин	-4408
▁підпи	-4409
▁біженців	-4410
▁єврокомі	-4411
▁донеччини	-4412
шт	-4413
ріли	-4414
▁реє	-4415
▁полку	-4416
▁фонду	-4417
▁героїв	-4418
▁кварта	-4419
▁пасажи	-4420
▁російське	-4421
▁суспільне	-4422
ань	-4423
нал	-4424
бель	-4425
пара	-4426
▁вік	-4427
▁калі	-4428
▁сума	-4429
▁одним	-4430
▁запропо	-4431
▁логісти	-4432
▁найбільш	-4433
▁випустили	-4434
▁мелітополя	-4435
sta	-4436
▁діяти	-4437
▁хворо	-4438
▁москві	-4439
▁напере	-4440
▁позбав	-4441
▁надасть	-4442
тті	-4443
▁93	-4444
хова	-4445
▁хре	-4446
джень	-4447
нував	-4448
▁своїм	-4449
▁твари	-4450
▁штурм	-4451
▁знайти	-4452
▁розвитку	-4453
сах	-4454
шені	-4455
тного	-4456
▁журналіст	-4457
▁гелікоптерів	-4458
лини	-4459
шують	-4460
▁мова	-4461
▁сері	-4462
▁туди	-4463
▁вокза	-4464
▁добре	-4465
▁русні	-4466
▁своїй	-4467
▁тижні	-4468
▁цифро	-4469
▁заверши	-4470
азовсталі	-4471
противійни	-4472
▁переміщення	-4473
▁миколаївської	-4474
▁pe	-4475
ницю	-4476
нула	-4477
▁(+2	-4478
▁забу	-4479
▁піло	-4480
▁світло	-4481
▁генпроку	-4482
▁телекана	-4483
▁напередодні	-4484
тю	-4485
решті	-4486
▁якій	-4487
▁аеродро	-4488
▁катастро	-4489
▁перемога	-4490
▁44	-4491
▁буду	-4492
▁мера	-4493
▁нале	-4494
▁селі	-4495
▁відда	-4496
▁знищу	-4497
повідом	-4498
▁сталося	-4499
▁мільйони	-4500
▁потрібні	-4501
▁доброволь	-4502
▁чим	-4503
▁юри	-4504
▁забра	-4505
▁прапор	-4506
▁спокій	-4507
▁падіння	-4508
добропротивійни	-4509
▁🤡	-4510
цієн	-4511
шень	-4512
▁вив	-4513
▁газо	-4514
▁зобов	-4515
▁околи	-4516
▁розши	-4517
▁одеська	-4518
▁експорту	-4519
▁кількості	-4520
▁енергосисте	-4521
▁ch	-4522
кора	-4523
йдіть	-4524
херсо	-4525
▁зоні	-4526
правді	-4527
▁аналі	-4528
▁гауби	-4529
▁днями	-4530
▁швидше	-4531
захи	-4532
тель	-4533
▁гри	-4534
ковий	-4535
тегра	-4536
▁регу	-4537
▁дніпра	-4538
▁примус	-4539
миколаїв	-4540
▁авіауда	-4541
▁кордоні	-4542
▁бнр	-4543
▁бол	-4544
▁фізи	-4545
▁безві	-4546
лювання	-4547
▁віримо	-4548
▁зверта	-4549
▁переки	-4550
▁громаді	-4551
▁отримає	-4552
▁справед	-4553
▁благодій	-4554
▁мешканці	-4555
▁словаччи	-4556
шує	-4557
які	-4558
▁ото	-4559
▁шпи	-4560
▁залуж	-4561
▁зброя	-4562
▁ірина	-4563
▁контролю	-4564
▁телеграм	-4565
▁цивільної	-4566
▁припинення	-4567
євро	-4568
▁зла	-4569
▁клю	-4570
▁банку	-4571
▁аварій	-4572
▁жодних	-4573
▁прокура	-4574
▁закладів	-4575
▁порушення	-4576
▁хмельниць	-4577
агре	-4578
гове	-4579
▁гід	-4580
▁зве	-4581
▁куди	-4582
ськими	-4583
▁приту	-4584
▁підпис	-4585
сихологі	-4586
▁загрозу	-4587
▁прохання	-4588
▁безпілотники	-4589
▁ph	-4590
риву	-4591
▁муж	-4592
головні	-4593
▁москов	-4594
▁списку	-4595
▁підписав	-4596
українські	-4597
▁42	-4598
тере	-4599
▁взяти	-4600
▁корот	-4601
▁павло	-4602
▁стану	-4603
▁комента	-4604
▁зареєстрова	-4605
сп	-4606
rat	-4607
ством	-4608
▁аква	-4609
джують	-4610
▁мітин	-4611
▁подіб	-4612
▁операцій	-4613
клі	-4614
мига	-4615
раши	-4616
хови	-4617
артил	-4618
▁пані	-4619
▁прин	-4620
▁армію	-4621
▁мосту	-4622
▁термі	-4623
▁складі	-4624
▁закликає	-4625
бру	-4626
▁155	-4627
▁дале	-4628
witter	-4629
▁безпеку	-4630
▁документи	-4631
78	-4632
por	-4633
вал	-4634
▁обл	-4635
жання	-4636
▁важко	-4637
▁форма	-4638
▁дронами	-4639
жені	-4640
▁бучі	-4641
▁виник	-4642
▁запла	-4643
▁сергія	-4644
▁смерть	-4645
▁начальник	-4646
▁чоловіків	-4647
sk	-4648
кази	-4649
ріло	-4650
▁бік	-4651
▁вне	-4652
▁моз	-4653
▁фонд	-4654
▁кілом	-4655
▁шмига	-4656
▁пацієн	-4657
жає	-4658
▁06	-4659
▁59	-4660
▁гре	-4661
чений	-4662
▁поряд	-4663
▁написа	-4664
▁сумська	-4665
президент	-4666
▁напрямок	-4667
▁переговорів	-4668
мом	-4669
▁нау	-4670
▁обся	-4671
▁завала	-4672
▁кличко	-4673
▁розстрі	-4674
▁забезпечити	-4675
прем	-4676
жують	-4677
нівці	-4678
ранку	-4679
сьому	-4680
чують	-4681
▁пиша	-4682
▁проф	-4683
ведено	-4684
▁вести	-4685
▁хлопчи	-4686
▁знищити	-4687
▁чекаємо	-4688
▁передали	-4689
▁пресслуж	-4690
чері	-4691
ційну	-4692
▁скуп	-4693
ходити	-4694
▁чинов	-4695
▁активних	-4696
▁частково	-4697
▁розповідає	-4698
▁керівництво	-4699
рян	-4700
чень	-4701
▁вкра	-4702
▁рубе	-4703
▁кораб	-4704
▁готова	-4705
▁період	-4706
▁громада	-4707
▁зверненні	-4708
▁насправді	-4709
▁ствольної	-4710
▁мобілізації	-4711
рор	-4712
херсон	-4713
▁відре	-4714
▁процес	-4715
▁побрати	-4716
▁завалами	-4717
▁штурмові	-4718
▁наступного	-4719
мпі	-4720
сон	-4721
їзду	-4722
▁тав	-4723
часно	-4724
▁виру	-4725
▁наци	-4726
▁нема	-4727
▁знаємо	-4728
▁відмовля	-4729
▁знаходяться	-4730
▁миколаївська	-4731
лод	-4732
▁ом	-4733
дена	-4734
няли	-4735
▁вте	-4736
▁найбільших	-4737
нять	-4738
льним	-4739
схови	-4740
▁зато	-4741
▁соле	-4742
▁чугу	-4743
▁значно	-4744
▁костян	-4745
▁проголо	-4746
▁створити	-4747
▁черговий	-4748
▁наступальних	-4749
вома	-4750
жива	-4751
кове	-4752
пуска	-4753
▁банк	-4754
агресо	-4755
▁атака	-4756
stagram	-4757
▁перетво	-4758
▁таврійсь	-4759
▁законопро	-4760
▁попередньою	-4761
od	-4762
гов	-4763
▁офіс	-4764
▁резо	-4765
▁напад	-4766
▁попас	-4767
▁спрям	-4768
▁шість	-4769
▁одещині	-4770
▁підкрес	-4771
▁координа	-4772
артилерійсь	-4773
yn	-4774
гле	-4775
лива	-4776
▁гло	-4777
лених	-4778
тивні	-4779
▁блок	-4780
▁піво	-4781
▁широ	-4782
▁якими	-4783
▁пропози	-4784
▁провести	-4785
og	-4786
yiv	-4787
▁ау	-4788
бага	-4789
пора	-4790
▁нео	-4791
казів	-4792
▁дати	-4793
▁взяли	-4794
▁здійснює	-4795
▁діяльності	-4796
▁продовжувати	-4797
гри	-4798
ляк	-4799
тік	-4800
няють	-4801
чними	-4802
▁вади	-4803
▁незлам	-4804
▁справа	-4805
▁означає	-4806
▁відсутні	-4807
▁необхідно	-4808
▁оголосили	-4809
▁національного	-4810
ep	-4811
▁опри	-4812
▁плани	-4813
▁енергода	-4814
зму	-4815
кур	-4816
гроз	-4817
кови	-4818
▁бал	-4819
▁дос	-4820
▁велич	-4821
▁пряму	-4822
▁магате	-4823
▁склали	-4824
▁відповідно	-4825
▁wor	-4826
▁чіт	-4827
▁окру	-4828
▁вихід	-4829
▁литви	-4830
▁місць	-4831
▁посла	-4832
▁донбасі	-4833
▁ліквіда	-4834
▁призначення	-4835
▁руха	-4836
▁усього	-4837
▁воєнних	-4838
▁роблять	-4839
▁солдатів	-4840
▁підтримують	-4841
ld	-4842
тком	-4843
▁pro	-4844
секре	-4845
ійшли	-4846
▁дізна	-4847
▁збору	-4848
▁екстре	-4849
▁пишуть	-4850
▁такого	-4851
нокоманд	-4852
▁випусти	-4853
▁супутник	-4854
▁чоловіка	-4855
▁миколаєва	-4856
жено	-4857
▁тран	-4858
▁нафти	-4859
▁зведенні	-4860
▁найбільша	-4861
em	-4862
ii	-4863
їж	-4864
мову	-4865
соби	-4866
това	-4867
▁cnn	-4868
▁фло	-4869
котре	-4870
▁прак	-4871
▁сіль	-4872
зькому	-4873
▁андрю	-4874
▁вдома	-4875
▁травм	-4876
▁кирило	-4877
▁машини	-4878
▁оприлюд	-4879
▁успішно	-4880
▁підготовку	-4881
тую	-4882
відом	-4883
▁поза	-4884
▁школи	-4885
▁москви	-4886
▁львівська	-4887
▁мелітополі	-4888
95	-4889
her	-4890
▁sp	-4891
▁вул	-4892
стані	-4893
▁даль	-4894
▁криво	-4895
▁ринку	-4896
бачення	-4897
▁піхоти	-4898
▁робить	-4899
▁комендан	-4900
▁резніков	-4901
▁передасть	-4902
▁черкаська	-4903
▁гуманітарної	-4904
26	-4905
▁міну	-4906
▁швей	-4907
вагнер	-4908
▁брати	-4909
▁перша	-4910
▁важкої	-4911
▁конфлі	-4912
▁країнах	-4913
▁позицію	-4914
▁повітряну	-4915
▁полтавська	-4916
▁підприємств	-4917
▁кіровоградська	-4918
ate	-4919
ных	-4920
▁ски	-4921
нівер	-4922
▁наси	-4923
▁заяву	-4924
▁однієї	-4925
▁серйоз	-4926
▁луганській	-4927
▁підтвердив	-4928
1.	-4929
55	-4930
-22	-4931
ляв	-4932
____	-4933
▁агент	-4934
▁звуки	-4935
▁відноси	-4936
▁відбудеться	-4937
riot	-4938
▁дрон	-4939
▁ключ	-4940
▁нами	-4941
▁рівні	-4942
▁покров	-4943
▁щи	-4944
стоя	-4945
▁оча	-4946
▁жорсто	-4947
▁олігар	-4948
ференції	-4949
▁співпра	-4950
▁вінницька	-4951
▁найближчим	-4952
вими	-4953
▁150	-4954
▁вол	-4955
панія	-4956
▁інфо	-4957
▁відчу	-4958
▁ствер	-4959
▁трохи	-4960
▁білого	-4961
▁виклика	-4962
▁зробили	-4963
▁допомагати	-4964
▁чернігівська	-4965
нна	-4966
тек	-4967
▁are	-4968
▁шан	-4969
ussia	-4970
▁арешт	-4971
▁вогнем	-4972
▁другий	-4973
▁перехо	-4974
▁провів	-4975
▁розпові	-4976
▁окупанта	-4977
▁хмельницька	-4978
дач	-4979
дро	-4980
ївка	-4981
жений	-4982
▁відом	-4983
▁обмін	-4984
▁пандемії	-4985
▁рівненська	-4986
▁житомирська	-4987
лон	-4988
▁звід	-4989
▁китаю	-4990
▁поруч	-4991
▁надалі	-4992
ходження	-4993
▁естонії	-4994
▁підтримати	-4995
▁реактивних	-4996
▁миколаївській	-4997
ci	-4998
цею	-4999
▁56	-5000
сить	-5001
щити	-5002
▁здат	-5003
калібр	-5004
▁підго	-5005
▁юриди	-5006
томість	-5007
▁повтор	-5008
▁twitter	-5009
▁отримання	-5010
▁намагалися	-5011
бур	-5012
▁❤️	-5013
жіть	-5014
▁метро	-5015
▁нової	-5016
▁телефо	-5017
▁запуска	-5018
▁сумської	-5019
▁східного	-5020
▁фактично	-5021
повідомляють	-5022
96	-5023
▁стріч	-5024
▁щастя	-5025
статньо	-5026
▁виправ	-5027
▁нарешті	-5028
кер	-5029
▁72	-5030
гові	-5031
мося	-5032
▁дар	-5033
чатку	-5034
▁груп	-5035
▁вугле	-5036
▁довго	-5037
▁межах	-5038
▁міська	-5039
овуються	-5040
залізниця	-5041
▁заборону	-5042
▁каховської	-5043
▁військовими	-5044
um	-5045
осо	-5046
пан	-5047
раді	-5048
▁замо	-5049
▁штаб	-5050
▁тобто	-5051
▁трухан	-5052
▁останню	-5053
▁директор	-5054
▁загрожує	-5055
▁наприклад	-5056
▁орієнтовно	-5057
▁просування	-5058
▁інфраструктурі	-5059
▁📌	-5060
ook	-5061
▁крок	-5062
▁потер	-5063
▁інфор	-5064
▁переко	-5065
77	-5066
eng	-5067
ist	-5068
▁phot	-5069
▁24.02	-5070
▁думку	-5071
▁дотриму	-5072
▁майбутнє	-5073
▁заступника	-5074
▁звільнених	-5075
▁гуманітарну	-5076
▁українськими	-5077
▁чернігівській	-5078
вен	-5079
сна	-5080
▁вів	-5081
▁оби	-5082
їжджа	-5083
▁мора	-5084
ктуаль	-5085
уватися	-5086
інформа	-5087
▁вдалось	-5088
▁регіону	-5089
ity	-5090
кує	-5091
роби	-5092
спон	-5093
шахе	-5094
якщо	-5095
▁год	-5096
губов	-5097
▁всту	-5098
▁лиши	-5099
▁глоба	-5100
▁консу	-5101
▁покра	-5102
▁стабіль	-5103
▁військова	-5104
▁головного	-5105
▁евакуацію	-5106
▁ліквідували	-5107
▁тернопільська	-5108
▁2.	-5109
▁65	-5110
світ	-5111
▁120	-5112
щиною	-5113
▁вилу	-5114
▁небо	-5115
▁писа	-5116
▁перевір	-5117
▁потрібна	-5118
▁наслідків	-5119
▁протитанк	-5120
▁російській	-5121
▁повітряного	-5122
фіци	-5123
▁бен	-5124
▁ріг	-5125
▁синє	-5126
▁зерна	-5127
▁примі	-5128
▁чотир	-5129
▁вкотре	-5130
▁львові	-5131
▁малень	-5132
▁служба	-5133
теграції	-5134
▁виступа	-5135
▁вартість	-5136
▁натомість	-5137
-20	-5138
схід	-5139
форм	-5140
▁опі	-5141
▁обшу	-5142
▁столи	-5143
▁ірану	-5144
▁можете	-5145
▁інтере	-5146
▁свободи	-5147
▁особисто	-5148
вов	-5149
ліна	-5150
рила	-5151
яких	-5152
▁ган	-5153
оване	-5154
▁kyiv	-5155
▁воно	-5156
▁диви	-5157
▁коле	-5158
▁обій	-5159
▁спорт	-5160
▁терор	-5161
▁кремля	-5162
▁допоможе	-5163
▁передала	-5164
▁перемови	-5165
▁чорномор	-5166
▁волинська	-5167
▁проводять	-5168
▁генерального	-5169
бої	-5170
▁58	-5171
▁ем	-5172
▁діа	-5173
▁галу	-5174
▁домов	-5175
▁конкре	-5176
▁жодного	-5177
▁навколо	-5178
▁державної	-5179
▁проводить	-5180
▁головнокоманд	-5181
от	-5182
med	-5183
йор	-5184
штур	-5185
▁вру	-5186
▁сау	-5187
▁тур	-5188
етрів	-5189
▁tele	-5190
▁ділян	-5191
▁судно	-5192
▁хтось	-5193
▁резолю	-5194
▁внутрішніх	-5195
тін	-5196
▁that	-5197
тенсив	-5198
тності	-5199
▁слобо	-5200
пування	-5201
пустити	-5202
▁евакуй	-5203
▁згідно	-5204
▁зранку	-5205
▁перших	-5206
▁полови	-5207
▁своїми	-5208
▁францу	-5209
▁patriot	-5210
▁показали	-5211
оперативна	-5212
▁встановлення	-5213
▁використовують	-5214
бор	-5215
лок	-5216
нює	-5217
▁хоч	-5218
▁ухва	-5219
розвід	-5220
рашисти	-5221
▁автома	-5222
▁вислови	-5223
6,	-5224
ити	-5225
▁см	-5226
▁закли	-5227
ніверси	-5228
▁шмигаль	-5229
▁говорити	-5230
▁німеччині	-5231
th	-5232
ты	-5233
вла	-5234
tern	-5235
шому	-5236
▁руб	-5237
вайте	-5238
▁харч	-5239
▁штабу	-5240
▁пожежу	-5241
▁комітету	-5242
▁працював	-5243
▁оголошено	-5244
▁продоволь	-5245
▁андрющенко	-5246
▁миколаївщині	-5247
25	-5248
мий	-5249
сам	-5250
▁64	-5251
▁вимо	-5252
▁неви	-5253
▁жінки	-5254
▁посол	-5255
▁нападу	-5256
▁партію	-5257
▁швеції	-5258
▁величез	-5259
▁можливі	-5260
▁становить	-5261
вні	-5262
мум	-5263
▁ag	-5264
вальні	-5265
неними	-5266
стання	-5267
▁фахів	-5268
▁кордоном	-5269
▁затримала	-5270
▁синєгубов	-5271
▁фінляндії	-5272
▁журналісти	-5273
▁захисникам	-5274
ции	-5275
лина	-5276
налу	-5277
▁(+3	-5278
далік	-5279
▁адре	-5280
shahed	-5281
контро	-5282
▁погоди	-5283
▁сторін	-5284
▁проведе	-5285
▁секретар	-5286
▁чернівецька	-5287
!»	-5288
ные	-5289
▁ar	-5290
▁їй	-5291
раху	-5292
▁бру	-5293
ристи	-5294
тичне	-5295
▁укри	-5296
▁красно	-5297
▁іншого	-5298
▁прибули	-5299
▁станцію	-5300
▁виробництво	-5301
ova	-5302
тити	-5303
▁боях	-5304
▁всти	-5305
▁photo	-5306
▁україно	-5307
▁ядерної	-5308
▁угорщини	-5309
▁абсолютно	-5310
▁евакуація	-5311
▁українською	-5312
▁європейської	-5313
ус	-5314
one	-5315
-136	-5316
▁600	-5317
▁шоль	-5318
▁домів	-5319
▁марга	-5320
▁їхніх	-5321
▁створе	-5322
▁верещук	-5323
▁депутат	-5324
▁кандида	-5325
▁підготовки	-5326
▁українській	-5327
▁закарпатська	-5328
нень	-5329
родні	-5330
▁мото	-5331
▁музи	-5332
▁безпо	-5333
▁вплив	-5334
▁місту	-5335
▁імпорт	-5336
▁південнобу	-5337
міс	-5338
чку	-5339
book	-5340
▁кни	-5341
▁сти	-5342
увача	-5343
▁брян	-5344
ватись	-5345
праців	-5346
▁львова	-5347
▁подоляк	-5348
▁поранень	-5349
▁неподалік	-5350
-31	-5351
тну	-5352
▁——	-5353
нить	-5354
▁ман	-5355
▁shel	-5356
▁гаря	-5357
▁злов	-5358
▁стру	-5359
▁борис	-5360
▁опини	-5361
▁горить	-5362
▁долуча	-5363
▁змогли	-5364
▁будівлю	-5365
▁захоплення	-5366
▁медведчука	-5367
▁постраждав	-5368
▁окупаційних	-5369
лє	-5370
мами	-5371
чена	-5372
▁гли	-5373
▁яко	-5374
▁змії	-5375
▁мала	-5376
▁батальйону	-5377
ff	-5378
oun	-5379
▁75	-5380
ливі	-5381
несу	-5382
▁музе	-5383
▁часто	-5384
▁банків	-5385
▁домови	-5386
▁посади	-5387
▁безвісти	-5388
▁базування	-5389
▁попередніми	-5390
▁територіальної	-5391
ht	-5392
▁ер	-5393
авто	-5394
ству	-5395
▁сіл	-5396
брита	-5397
▁вступ	-5398
▁дають	-5399
▁дикта	-5400
▁катери	-5401
▁кварти	-5402
▁справу	-5403
▁сухопу	-5404
▁економіки	-5405
▁безпілотник	-5406
▁максимально	-5407
▁правоохоронці	-5408
ko	-5409
ase	-5410
ited	-5411
зять	-5412
менти	-5413
▁діля	-5414
▁вален	-5415
▁лідер	-5416
▁нарде	-5417
▁дефіци	-5418
▁направ	-5419
▁спричи	-5420
▁тривогу	-5421
▁операція	-5422
▁цивільні	-5423
▁перебування	-5424
38	-5425
іс	-5426
она	-5427
▁сю	-5428
кома	-5429
▁біл	-5430
▁кру	-5431
стров	-5432
▁варі	-5433
▁болга	-5434
▁особа	-5435
▁увагу	-5436
▁чехії	-5437
acebook	-5438
▁голову	-5439
▁жителі	-5440
▁тижнів	-5441
▁провели	-5442
слідувати	-5443
▁транспор	-5444
▁криворізь	-5445
▁полонених	-5446
7,	-5447
лого	-5448
держа	-5449
талія	-5450
форми	-5451
▁суми	-5452
▁альян	-5453
▁назем	-5454
▁угоди	-5455
▁справи	-5456
▁проводи	-5457
валі	-5458
▁бала	-5459
▁закрі	-5460
ватимуть	-5461
▁перевез	-5462
▁свобода	-5463
внаслідок	-5464
референду	-5465
▁збройної	-5466
▁потрапив	-5467
▁готується	-5468
▁мільярдів	-5469
▁контрнаступ	-5470
▁розмінування	-5471
фу	-5472
кин	-5473
▁ab	-5474
▁из	-5475
ості	-5476
▁міц	-5477
▁віце	-5478
▁жити	-5479
▁офіц	-5480
льніше	-5481
важаючи	-5482
▁перемі	-5483
▁регіоні	-5484
▁ukrainian	-5485
▁мелітополь	-5486
lin	-5487
вок	-5488
berg	-5489
сува	-5490
▁бар	-5491
▁ігна	-5492
▁роман	-5493
▁грузії	-5494
▁найман	-5495
▁справі	-5496
▁товарів	-5497
▁інтенсив	-5498
▁врятувати	-5499
▁дозволить	-5500
▁місцевого	-5501
▁запорізькому	-5502
▁бы	-5503
ванні	-5504
▁гвар	-5505
кувала	-5506
▁євген	-5507
річного	-5508
▁італії	-5509
▁атакував	-5510
▁регіонів	-5511
▁💬	-5512
алі	-5513
▁ціл	-5514
льному	-5515
▁пожеж	-5516
▁заходу	-5517
▁регуляр	-5518
▁сумщині	-5519
▁універси	-5520
▁чотирьох	-5521
▁підрозділу	-5522
▁європейського	-5523
сс	-5524
▁анг	-5525
▁хво	-5526
▁ваші	-5527
▁зама	-5528
▁село	-5529
▁умов	-5530
▁функ	-5531
голова	-5532
▁видно	-5533
▁принци	-5534
▁чугуїв	-5535
▁інформу	-5536
▁одеській	-5537
▁звернувся	-5538
▁зіткнення	-5539
▁49	-5540
▁екі	-5541
▁кос	-5542
▁одя	-5543
пілля	-5544
фінгу	-5545
звітую	-5546
▁відби	-5547
▁підрив	-5548
▁провока	-5549
▁франція	-5550
▁закликають	-5551
▁захворювань	-5552
▁гуманітарних	-5553
лою	-5554
руч	-5555
щені	-5556
▁def	-5557
▁this	-5558
▁коза	-5559
▁моні	-5560
▁стол	-5561
▁тіло	-5562
ловому	-5563
▁земле	-5564
▁першу	-5565
▁деокуп	-5566
▁справж	-5567
▁іншими	-5568
▁великий	-5569
▁енергетичної	-5570
▁as	-5571
есій	-5572
▁гор	-5573
▁викла	-5574
▁тради	-5575
▁конгре	-5576
▁проєкт	-5577
▁державі	-5578
▁слобожан	-5579
▁автомобілів	-5580
▁наступальні	-5581
»:	-5582
▁мп	-5583
▁зір	-5584
▁(+1)	-5585
▁бого	-5586
▁співа	-5587
▁загроз	-5588
▁заморо	-5589
▁картки	-5590
▁світової	-5591
▁акваторії	-5592
▁туреччині	-5593
▁автомобілі	-5594
▁олександра	-5595
▁обстрілювали	-5596
72	-5597
кол	-5598
чок	-5599
▁am	-5600
чній	-5601
▁all	-5602
▁луна	-5603
▁велику	-5604
▁товари	-5605
▁важливі	-5606
▁створили	-5607
▁припинити	-5608
▁підрозділ	-5609
▁водопостачання	-5610
ью	-5611
нак	-5612
вере	-5613
жили	-5614
мана	-5615
▁ток	-5616
зацію	-5617
▁бажа	-5618
▁пога	-5619
▁почу	-5620
▁упов	-5621
▁делега	-5622
▁званої	-5623
▁⚡️⚡️⚡️	-5624
▁ввечері	-5625
▁комуналь	-5626
▁спеціальна	-5627
▁допомагають	-5628
35	-5629
кау	-5630
чем	-5631
банк	-5632
мент	-5633
лерій	-5634
▁виста	-5635
▁щоден	-5636
▁ймовір	-5637
▁потреб	-5638
▁відчува	-5639
▁співпраці	-5640
▁українське	-5641
▁харківському	-5642
сбу	-5643
▁1.	-5644
бпла	-5645
▁інж	-5646
▁2020	-5647
▁зале	-5648
▁пова	-5649
▁чере	-5650
▁liber	-5651
▁всьому	-5652
▁балісти	-5653
▁державу	-5654
▁стільки	-5655
▁брифінгу	-5656
▁колишній	-5657
▁пройдіть	-5658
▁покарання	-5659
▁проводити	-5660
▁електропере	-5661
:0	-5662
▁att	-5663
▁blo	-5664
▁sir	-5665
▁war	-5666
▁ета	-5667
▁тай	-5668
▁это	-5669
▁небі	-5670
▁онов	-5671
▁пішов	-5672
станції	-5673
▁назвав	-5674
▁спеціа	-5675
▁ворожого	-5676
▁краматорську	-5677
ft	-5678
uk	-5679
чя	-5680
мки	-5681
шей	-5682
берг	-5683
нові	-5684
▁вся	-5685
черні	-5686
язані	-5687
▁вікна	-5688
▁кожна	-5689
▁василь	-5690
▁великі	-5691
▁латвії	-5692
▁прибув	-5693
▁виглядає	-5694
▁залужний	-5695
▁міського	-5696
▁артилерія	-5697
вод	-5698
сев	-5699
спец	-5700
муться	-5701
▁ігнат	-5702
▁гостом	-5703
▁захопити	-5704
▁поцілили	-5705
▁незалежності	-5706
ith	-5707
суд	-5708
▁уж	-5709
тими	-5710
слава	-5711
шньої	-5712
omberg	-5713
нували	-5714
важливі	-5715
▁випуск	-5716
▁майдан	-5717
▁цікаво	-5718
їнському	-5719
▁загибло	-5720
▁історія	-5721
▁передачу	-5722
ik	-5723
▁1,	-5724
сзмі	-5725
ский	-5726
▁ple	-5727
▁очо	-5728
▁news	-5729
▁дома	-5730
▁рост	-5731
▁хімі	-5732
▁будан	-5733
▁лінію	-5734
▁секто	-5735
▁включа	-5736
▁досвід	-5737
▁метрів	-5738
▁влучила	-5739
▁перегля	-5740
▁просять	-5741
▁перевіря	-5742
▁захистити	-5743
▁медпраців	-5744
▁оперативна	-5745
▁продовження	-5746
▁фінансування	-5747
▁набу	-5748
▁наче	-5749
▁реко	-5750
▁площі	-5751
▁подат	-5752
▁героям	-5753
▁долучи	-5754
▁свідом	-5755
▁валерій	-5756
▁відвіда	-5757
▁закінчи	-5758
▁telegram	-5759
▁втратили	-5760
мк	-5761
жов	-5762
жче	-5763
▁базу	-5764
▁порт	-5765
▁нацполі	-5766
▁телефон	-5767
▁одеської	-5768
▁частиною	-5769
for	-5770
тим	-5771
very	-5772
анні	-5773
пеня	-5774
тина	-5775
▁дев	-5776
▁кади	-5777
▁кіно	-5778
▁конфі	-5779
▁маляр	-5780
▁готують	-5781
▁вбивства	-5782
▁виявлено	-5783
▁збільшення	-5784
▁парламенту	-5785
ran	-5786
www	-5787
нюють	-5788
тації	-5789
▁тимо	-5790
танків	-5791
▁актуаль	-5792
▁воювати	-5793
▁обласної	-5794
▁поставки	-5795
▁кілометрів	-5796
▁сіверському	-5797
тину	-5798
▁боя	-5799
▁коп	-5800
▁сце	-5801
парта	-5802
▁огля	-5803
▁якою	-5804
шувати	-5805
▁18.00	-5806
▁просу	-5807
▁полоні	-5808
▁посаду	-5809
▁службу	-5810
▁спробу	-5811
▁уламки	-5812
▁хвилин	-5813
▁стосується	-5814
артилерійських	-5815
48	-5816
pv	-5817
port	-5818
чими	-5819
чому	-5820
▁сама	-5821
▁низці	-5822
▁охоро	-5823
люється	-5824
▁please	-5825
▁united	-5826
▁зібрати	-5827
▁мирного	-5828
▁міської	-5829
▁пригожи	-5830
▁споруди	-5831
▁будівель	-5832
▁дозволяє	-5833
▁командир	-5834
▁заступниця	-5835
▁позбавлення	-5836
шан	-5837
-19.	-5838
стки	-5839
▁еле	-5840
▁опа	-5841
ванта	-5842
▁тиск	-5843
▁порів	-5844
▁воїнам	-5845
▁паспор	-5846
особового	-5847
ые	-5848
-25	-5849
хом	-5850
▁впро	-5851
▁ердо	-5852
▁знай	-5853
▁скан	-5854
▁стій	-5855
градів	-5856
▁список	-5857
▁вирішив	-5858
▁експерти	-5859
▁прослідувати	-5860
ляй	-5861
ный	-5862
квар	-5863
▁дає	-5864
ійшов	-5865
ляться	-5866
▁завод	-5867
▁одній	-5868
▁вийшли	-5869
▁відоми	-5870
▁знайде	-5871
▁канади	-5872
▁росзмі	-5873
▁загрози	-5874
▁молдови	-5875
▁посадов	-5876
▁розвідку	-5877
▁електрики	-5878
▁коментарі	-5879
▁підірвали	-5880
▁перебувайте	-5881
дніпропетровщина	-5882
оде	-5883
овок	-5884
▁ізо	-5885
▁тера	-5886
▁майно	-5887
▁далеко	-5888
▁вивезли	-5889
▁сказати	-5890
▁інженер	-5891
▁готуються	-5892
▁необхідні	-5893
▁обстрілюють	-5894
аг	-5895
100	-5896
▁66	-5897
тати	-5898
▁бель	-5899
▁псев	-5900
▁всієї	-5901
▁відпо	-5902
▁генсе	-5903
▁режиму	-5904
▁бажання	-5905
▁останній	-5906
79	-5907
▁:	-5908
ave	-5909
сша	-5910
▁нє	-5911
▁схе	-5912
▁афри	-5913
▁указ	-5914
▁прошу	-5915
▁пересе	-5916
▁різного	-5917
▁західних	-5918
▁монітори	-5919
▁розповсю	-5920
▁інтернет	-5921
▁учасників	-5922
▁найважливі	-5923
▁єврокомісії	-5924
▁використовує	-5925
▁незалежність	-5926
▁обстрілювати	-5927
▁українському	-5928
нт	-5929
дож	-5930
лка	-5931
лила	-5932
▁(+4	-5933
▁тіл	-5934
зація	-5935
сного	-5936
▁влаш	-5937
▁кмва	-5938
засоби	-5939
▁вадим	-5940
▁екіпа	-5941
▁одеса	-5942
▁сирії	-5943
▁візиту	-5944
▁максим	-5945
▁спочатку	-5946
▁незаконно	-5947
▁результат	-5948
▁соцмережах	-5949
▁харківщини	-5950
гію	-5951
дію	-5952
ори	-5953
сме	-5954
▁ser	-5955
▁хай	-5956
війсь	-5957
стили	-5958
▁боїв	-5959
▁лока	-5960
▁даних	-5961
▁часів	-5962
▁стався	-5963
▁виготов	-5964
▁виплати	-5965
▁надсила	-5966
▁професій	-5967
▁bloomberg	-5968
▁контролем	-5969
▁зруйновані	-5970
▁бомбардування	-5971
ква	-5972
▁76	-5973
▁gu	-5974
лями	-5975
сков	-5976
захво	-5977
ристів	-5978
▁анонс	-5979
▁флоту	-5980
▁торгів	-5981
парламен	-5982
▁дружина	-5983
▁рахунок	-5984
▁структу	-5985
▁оголосив	-5986
▁відбулося	-5987
la	-5988
.03	-5989
дра	-5990
ople	-5991
▁поо	-5992
▁днем	-5993
▁зони	-5994
▁неба	-5995
▁укрі	-5996
▁візит	-5997
▁гарма	-5998
▁портів	-5999
▁агресора	-6000
▁парламент	-6001
▁блокування	-6002
iz	-6003
ной	-6004
▁ур	-6005
дань	-6006
▁дім	-6007
▁син	-6008
▁сті	-6009
менюк	-6010
▁хова	-6011
продук	-6012
▁ньому	-6013
несення	-6014
▁прості	-6015
▁смерті	-6016
ійського	-6017
проведено	-6018
▁державою	-6019
▁програми	-6020
▁звинувати	-6021
▁міжнародні	-6022
▁підприємство	-6023
pal	-6024
днр	-6025
вами	-6026
▁стер	-6027
▁стої	-6028
ussian	-6029
▁мирні	-6030
▁мінус	-6031
▁звісно	-6032
▁зроста	-6033
▁каналі	-6034
▁посоль	-6035
▁столтен	-6036
▁хвороби	-6037
▁надавати	-6038
▁передачі	-6039
▁захворіли	-6040
▁встановити	-6041
▁документів	-6042
▁комплексів	-6043
▁харчування	-6044
мс	-6045
▁⏺	-6046
▁кв	-6047
дент	-6048
тять	-6049
▁мої	-6050
▁яну	-6051
▁яро	-6052
▁every	-6053
▁пораз	-6054
▁суден	-6055
рядження	-6056
▁півночі	-6057
▁скупчення	-6058
▁міжнародної	-6059
▁2,	-6060
рсзв	-6061
▁516	-6062
▁fpv	-6063
▁гер	-6064
▁надій	-6065
донеччи	-6066
▁people	-6067
▁загаль	-6068
▁зовсім	-6069
▁кожній	-6070
▁швейца	-6071
▁гуменюк	-6072
▁зловмис	-6073
донеччина	-6074
тестувань	-6075
▁відкрили	-6076
▁дезінформа	-6077
32	-6078
-16	-6079
лки	-6080
кції	-6081
хати	-6082
▁арм	-6083
▁дав	-6084
▁шту	-6085
aypal	-6086
банку	-6087
крили	-6088
▁обслу	-6089
▁чемпі	-6090
▁затвер	-6091
▁команда	-6092
▁уповнова	-6093
▁французь	-6094
▁активність	-6095
▁винищувачі	-6096
▁міжнародний	-6097
газ	-6098
юсь	-6099
тика	-6100
гнору	-6101
окупа	-6102
▁with	-6103
▁зміц	-6104
▁знає	-6105
▁касе	-6106
▁поди	-6107
▁поро	-6108
▁зовні	-6109
▁попро	-6110
▁союзу	-6111
▁австра	-6112
▁джерела	-6113
▁загиблі	-6114
▁кривому	-6115
▁спожива	-6116
захворіло	-6117
▁відбувся	-6118
▁рашистами	-6119
▁триватиме	-6120
▁пресслужба	-6121
▁організацій	-6122
▁пропагандисти	-6123
▁слобожанському	-6124
%,	-6125
ms	-6126
атом	-6127
щено	-6128
нації	-6129
ниччи	-6130
▁уник	-6131
льними	-6132
▁майна	-6133
▁активи	-6134
▁годину	-6135
▁концер	-6136
▁кремен	-6137
▁півдня	-6138
▁членів	-6139
▁знестру	-6140
▁підриву	-6141
▁вирішили	-6142
гає	-6143
▁pol	-6144
▁малю	-6145
▁пото	-6146
центру	-6147
▁world	-6148
▁друга	-6149
▁знешко	-6150
▁остато	-6151
▁режимі	-6152
▁великих	-6153
▁лікування	-6154
▁проживання	-6155
▁трансформа	-6156
▁європейських	-6157
2.22	-6158
сіїв	-6159
▁сал	-6160
півні	-6161
рівки	-6162
через	-6163
▁1000	-6164
▁вагн	-6165
▁рази	-6166
лектро	-6167
▁давно	-6168
▁корпу	-6169
▁такої	-6170
ливість	-6171
▁пострі	-6172
▁випадку	-6173
▁символі	-6174
▁залишити	-6175
▁зведення	-6176
▁потребує	-6177
▁військами	-6178
▁євросоюзу	-6179
▁передбачає	-6180
▁👉	-6181
зву	-6182
▁52	-6183
ceed	-6184
гова	-6185
нних	-6186
▁(+5	-6187
▁вов	-6188
добрі	-6189
орлан	-6190
ention	-6191
▁підто	-6192
▁солід	-6193
▁стави	-6194
▁австрі	-6195
▁медики	-6196
▁схвали	-6197
▁сумській	-6198
▁тримають	-6199
харківська	-6200
▁волонтери	-6201
▁посольства	-6202
rom	-6203
▁тво	-6204
кістю	-6205
тична	-6206
▁євге	-6207
▁єрма	-6208
▁києвом	-6209
▁почала	-6210
▁статус	-6211
▁київщини	-6212
▁прокомен	-6213
▁командувач	-6214
▁⚡	-6215
ant	-6216
▁raid	-6217
▁вода	-6218
▁воду	-6219
▁кура	-6220
▁маві	-6221
тивних	-6222
▁вийти	-6223
▁нехай	-6224
▁відсто	-6225
▁літака	-6226
▁нанесли	-6227
▁розмірі	-6228
▁безпосеред	-6229
▁детальніше	-6230
▁великобрита	-6231
гою	-6232
еру	-6233
здат	-6234
▁you	-6235
▁вмі	-6236
▁воз	-6237
▁шкі	-6238
▁дому	-6239
▁різд	-6240
▁рішу	-6241
▁силу	-6242
▁коруп	-6243
▁почав	-6244
▁поїха	-6245
▁приві	-6246
▁окупант	-6247
▁переможе	-6248
▁командира	-6249
▁технологі	-6250
▁контрнаступу	-6251
▁підрозділами	-6252
bc	-6253
сад	-6254
▁95	-6255
нією	-6256
тику	-6257
▁капі	-6258
▁приво	-6259
▁силам	-6260
ляється	-6261
▁бригад	-6262
▁стриму	-6263
▁відреаг	-6264
▁чорному	-6265
▁attention	-6266
▁опитування	-6267
▁організація	-6268
нін	-6269
▁47	-6270
▁бог	-6271
▁нес	-6272
▁таки	-6273
багато	-6274
▁посад	-6275
▁учора	-6276
▁ціліс	-6277
youtube	-6278
україни	-6279
▁другої	-6280
▁переви	-6281
▁селища	-6282
овується	-6283
▁безпеці	-6284
▁березні	-6285
▁комісії	-6286
▁перегру	-6287
▁важливий	-6288
▁використов	-6289
▁народження	-6290
▁начальника	-6291
1;	-6292
мей	-6293
нат	-6294
ссе	-6295
▁250	-6296
▁who	-6297
media	-6298
тивно	-6299
літаків	-6300
▁псевдо	-6301
▁бізнесу	-6302
▁застосу	-6303
▁можливе	-6304
▁shelters	-6305
▁говорить	-6306
▁евакуювали	-6307
▁обговорили	-6308
▁ініціативи	-6309
▁прикордонних	-6310
різ	-6311
сне	-6312
ской	-6313
ючих	-6314
▁діє	-6315
▁бавов	-6316
▁випла	-6317
▁прихи	-6318
▁існує	-6319
гелікоп	-6320
▁звання	-6321
дністров	-6322
▁вдячний	-6323
▁початок	-6324
▁протест	-6325
▁сторони	-6326
▁обговорю	-6327
▁достатньо	-6328
▁установки	-6329
▁лисичанськ	-6330
▁чернігівщині	-6331
▁сєвєродонецьк	-6332
▁чернігівської	-6333
▁електропередач	-6334
кат	-6335
рець	-6336
▁уве	-6337
ляції	-6338
▁пово	-6339
▁реалі	-6340
▁sirens	-6341
▁правда	-6342
▁хотіли	-6343
▁proceed	-6344
▁наближа	-6345
▁ізраїль	-6346
▁операцію	-6347
▁комплексу	-6348
▁півострова	-6349
▁постраждала	-6350
шо	-6351
ork	-6352
йгу	-6353
ллі	-6354
туру	-6355
▁аре	-6356
тепер	-6357
▁веду	-6358
▁парти	-6359
▁бачимо	-6360
▁зробив	-6361
▁майбут	-6362
▁відпочи	-6363
▁достави	-6364
▁звільне	-6365
▁знищені	-6366
▁першого	-6367
▁24.02.22	-6368
▁країнами	-6369
▁запустили	-6370
▁пошкодили	-6371
▁бердянська	-6372
▁партнерами	-6373
▁генеральний	-6374
▁підтвердження	-6375
oc	-6376
ленню	-6377
тними	-6378
▁дали	-6379
▁наст	-6380
▁олек	-6381
ченням	-6382
▁казах	-6383
▁момен	-6384
▁честь	-6385
шується	-6386
▁прогно	-6387
▁тварин	-6388
янського	-6389
▁альянсу	-6390
▁захищає	-6391
▁ракетно	-6392
▁украины	-6393
▁важливих	-6394
▁зайнятих	-6395
▁instagram	-6396
▁реактивної	-6397
▁підтверджених	-6398
iy	-6399
миш	-6400
демо	-6401
копи	-6402
ович	-6403
▁ваш	-6404
▁пом	-6405
▁піз	-6406
▁вене	-6407
▁виму	-6408
▁воює	-6409
▁іден	-6410
тувала	-6411
▁думаю	-6412
▁заслу	-6413
▁подій	-6414
▁схоже	-6415
крилаті	-6416
▁керова	-6417
▁пакету	-6418
▁підсум	-6419
▁будівля	-6420
▁органів	-6421
новинидля	-6422
▁медичної	-6423
▁проголос	-6424
інтеграції	-6425
▁генпрокурора	-6426
▁стратегічних	-6427
▁прикордонники	-6428
новинидляукраїни	-6429
33	-6430
4.	-6431
рят	-6432
▁ma	-6433
жерт	-6434
▁кли	-6435
▁нью	-6436
дувати	-6437
рський	-6438
▁банки	-6439
головне	-6440
кораблі	-6441
▁байдена	-6442
▁лідерів	-6443
▁нагород	-6444
▁процеду	-6445
▁солідар	-6446
▁валентин	-6447
▁марганець	-6448
▁практично	-6449
▁резніченко	-6450
гелікоптерів	-6451
▁продовжується	-6452
▁00	-6453
язки	-6454
▁дію	-6455
▁чин	-6456
гнера	-6457
▁боре	-6458
▁допи	-6459
▁змін	-6460
більше	-6461
▁вигра	-6462
▁облич	-6463
▁робіт	-6464
небезпе	-6465
▁активів	-6466
▁викрали	-6467
▁іспанії	-6468
▁більшості	-6469
▁знищувати	-6470
▁психологі	-6471
▁працівники	-6472
сє	-6473
бив	-6474
мир	-6475
біця	-6476
стін	-6477
тить	-6478
тніх	-6479
чань	-6480
шків	-6481
▁впав	-6482
▁запе	-6483
▁акції	-6484
▁знати	-6485
▁увага	-6486
▁школа	-6487
▁подару	-6488
▁зазначила	-6489
▁морського	-6490
▁тимошенко	-6491
▁відповідні	-6492
▁нідерландів	-6493
▁зазначається	-6494
err	-6495
ніх	-6496
▁09	-6497
▁74	-6498
дані	-6499
▁con	-6500
▁5168	-6501
▁валю	-6502
▁токма	-6503
▁іншим	-6504
▁вантаж	-6505
▁повний	-6506
▁шляхом	-6507
підрозді	-6508
▁виконав	-6509
▁вертоліт	-6510
▁морської	-6511
▁поширення	-6512
▁підконтро	-6513
▁зосереджує	-6514
зж	-6515
ує	-6516
▁98	-6517
воло	-6518
дьте	-6519
▁живе	-6520
▁зачи	-6521
▁ціну	-6522
▁вказа	-6523
▁досяг	-6524
▁заяві	-6525
▁старо	-6526
▁трибу	-6527
▁чутно	-6528
електро	-6529
▁віктор	-6530
▁зборів	-6531
▁просить	-6532
▁знеструм	-6533
▁пишаємося	-6534
▁виконувати	-6535
▁повідомляється	-6536
7;	-6537
ph	-6538
гін	-6539
чле	-6540
▁08	-6541
▁sh	-6542
бави	-6543
бора	-6544
зага	-6545
▁табо	-6546
▁полта	-6547
▁їхній	-6548
▁нейтра	-6549
▁підуть	-6550
▁рідних	-6551
▁святку	-6552
▁такими	-6553
▁штурму	-6554
▁випуску	-6555
▁виїхати	-6556
▁культур	-6557
▁пізніше	-6558
▁загиблого	-6559
▁опублікував	-6560
▁співробітників	-6561
йс	-6562
ust	-6563
ура	-6564
▁ин	-6565
чали	-6566
▁(+6	-6567
▁тек	-6568
менту	-6569
▁мона	-6570
▁сере	-6571
▁стає	-6572
кинджа	-6573
уванні	-6574
▁жорст	-6575
▁собою	-6576
▁забира	-6577
▁колони	-6578
▁компен	-6579
▁конкур	-6580
вагнерів	-6581
▁автівки	-6582
▁історію	-6583
▁унаслідок	-6584
▁оголошення	-6585
▁дослідження	-6586
ий	-6587
тон	-6588
ight	-6589
сією	-6590
швид	-6591
▁800	-6592
запорі	-6593
▁андрія	-6594
▁відсту	-6595
▁канада	-6596
▁містом	-6597
▁надійш	-6598
▁румунії	-6599
▁уламків	-6600
лівському	-6601
▁зазначили	-6602
▁комендант	-6603
▁іноземних	-6604
▁зруйнували	-6605
▁❗	-6606
мали	-6607
▁зма	-6608
штурм	-6609
▁брат	-6610
▁пети	-6611
▁поне	-6612
▁спор	-6613
▁ганна	-6614
▁патру	-6615
▁поточ	-6616
▁сфері	-6617
▁березі	-6618
▁ведуть	-6619
▁потрап	-6620
▁кордони	-6621
▁прігожи	-6622
▁дівчинка	-6623
▁уточнюються	-6624
-4	-6625
▁85	-6626
▁now	-6627
▁was	-6628
▁вво	-6629
няття	-6630
▁друз	-6631
▁моги	-6632
▁нена	-6633
▁варша	-6634
▁тепло	-6635
▁шойгу	-6636
житомир	-6637
▁воєнні	-6638
▁зенітно	-6639
▁обстави	-6640
▁повинен	-6641
противник	-6642
▁звільнити	-6643
▁журналістів	-6644
▁оперативного	-6645
▁he	-6646
ттів	-6647
чите	-6648
▁not	-6649
▁ане	-6650
▁ном	-6651
▁руки	-6652
▁урсу	-6653
провід	-6654
цького	-6655
▁здобу	-6656
▁нафту	-6657
▁поспі	-6658
▁хотів	-6659
▁людину	-6660
секретар	-6661
▁доброго	-6662
▁заклади	-6663
▁патріар	-6664
▁початком	-6665
▁оголосила	-6666
▁відділення	-6667
мось	-6668
▁віз	-6669
▁каб	-6670
натор	-6671
▁межі	-6672
▁апара	-6673
▁дисло	-6674
▁заува	-6675
▁оскол	-6676
▁серві	-6677
▁хлопці	-6678
▁ігнору	-6679
▁вигляді	-6680
▁пообіця	-6681
▁посилити	-6682
▁енергобло	-6683
▁комплекси	-6684
▁лукашенко	-6685
▁перебували	-6686
тве	-6687
арів	-6688
▁сез	-6689
димир	-6690
▁____	-6691
▁накла	-6692
▁щойно	-6693
ляються	-6694
▁повному	-6695
▁справді	-6696
▁захопили	-6697
харківщина	-6698
▁тестувань	-6699
▁евакуювати	-6700
▁завершення	-6701
cc	-6702
▁🇬	-6703
ive	-6704
▁us	-6705
▁рб	-6706
▁ся	-6707
▁яр	-6708
нної	-6709
▁десь	-6710
▁якби	-6711
канали	-6712
нювати	-6713
▁пропу	-6714
▁розшу	-6715
▁чергу	-6716
ередині	-6717
▁власні	-6718
▁дійсно	-6719
▁поступ	-6720
▁запобіж	-6721
▁країною	-6722
▁самохід	-6723
▁верховної	-6724
▁перемогти	-6725
▁колишнього	-6726
йд	-6727
rnt	-6728
зин	-6729
кож	-6730
шка	-6731
▁вр	-6732
▁ря	-6733
дире	-6734
▁діях	-6735
▁нове	-6736
мертно	-6737
▁місії	-6738
▁назад	-6739
▁наказ	-6740
▁дистан	-6741
▁жодної	-6742
▁підпису	-6743
▁рубіжне	-6744
▁чекають	-6745
▁демонстру	-6746
▁столтенберг	-6747
ip	-6748
ka	-6749
ies	-6750
зав	-6751
рку	-6752
▁69	-6753
▁тю	-6754
grnt	-6755
жена	-6756
▁скар	-6757
▁інше	-6758
▁захоп	-6759
▁різні	-6760
▁грошей	-6761
▁запере	-6762
▁присвя	-6763
▁снаряд	-6764
▁терору	-6765
▁адміністрація	-6766
▁сєвєродонецьку	-6767
37	-6768
лої	-6769
ную	-6770
яті	-6771
▁дп	-6772
:00.	-6773
▁жах	-6774
іскан	-6775
▁живу	-6776
▁прое	-6777
станом	-6778
▁траге	-6779
▁худож	-6780
▁цифри	-6781
▁лабора	-6782
▁бюджету	-6783
▁потерпі	-6784
▁украине	-6785
кой	-6786
▁ап	-6787
▁ат	-6788
лока	-6789
джено	-6790
▁star	-6791
▁безу	-6792
▁макро	-6793
▁шольц	-6794
▁блокпо	-6795
▁визнав	-6796
▁кремін	-6797
▁саміті	-6798
запорізь	-6799
▁зміїний	-6800
▁користь	-6801
▁просуну	-6802
▁сказала	-6803
запоріжжя	-6804
▁facebook	-6805
▁ракетної	-6806
▁тяжкості	-6807
▁державних	-6808
▁житловому	-6809
▁бердянську	-6810
▁винищувачів	-6811
▁повернутися	-6812
▁бомбардуваль	-6813
▁коронавірусної	-6814
na	-6815
ain	-6816
lad	-6817
даю	-6818
ліч	-6819
шою	-6820
▁чов	-6821
вночі	-6822
▁тара	-6823
▁готує	-6824
▁двічі	-6825
▁успіш	-6826
▁516874	-6827
▁вибухо	-6828
▁кремль	-6829
▁вбивати	-6830
▁відстав	-6831
▁готовий	-6832
▁надають	-6833
▁повідомило	-6834
▁краматорськ	-6835
ory	-6836
гер	-6837
торі	-6838
▁базі	-6839
▁канц	-6840
▁спла	-6841
▁тіка	-6842
▁фіксу	-6843
ництвом	-6844
▁сувере	-6845
▁заванта	-6846
▁проходи	-6847
▁сталася	-6848
▁хлопчик	-6849
▁боротися	-6850
▁встановили	-6851
▁окупованої	-6852
▁перебувати	-6853
▁інфраструктура	-6854
ech	-6855
дує	-6856
лит	-6857
май	-6858
шин	-6859
шли	-6860
▁ен	-6861
▁тг	-6862
кіна	-6863
який	-6864
▁com	-6865
▁дже	-6866
▁йти	-6867
бовці	-6868
▁марод	-6869
▁позив	-6870
▁судна	-6871
тиметься	-6872
▁направи	-6873
▁перелік	-6874
▁перешко	-6875
▁повинна	-6876
▁продажу	-6877
▁ранкові	-6878
▁підозрюва	-6879
▁окупаційна	-6880
ru	-6881
зм	-6882
▁🇪	-6883
брі	-6884
пні	-6885
щих	-6886
ареш	-6887
ніве	-6888
сних	-6889
▁тлі	-6890
будів	-6891
▁york	-6892
▁пост	-6893
кладні	-6894
▁карта	-6895
▁польо	-6896
▁пріори	-6897
▁россии	-6898
▁четвер	-6899
чернігів	-6900
▁донбасу	-6901
▁путіним	-6902
▁ударних	-6903
▁перекона	-6904
▁угорщина	-6905
▁укриттів	-6906
▁волонтерів	-6907
▁отримувати	-6908
▁пошкоджень	-6909
▁окупаційної	-6910
щий	-6911
▁05	-6912
▁5-	-6913
▁at	-6914
мога	-6915
▁кви	-6916
▁крі	-6917
також	-6918
▁post	-6919
▁обмі	-6920
▁попа	-6921
▁ціль	-6922
▁бомби	-6923
▁йдуть	-6924
▁шляху	-6925
▁будьте	-6926
▁взаємо	-6927
▁десяти	-6928
▁жителя	-6929
▁сильні	-6930
▁вулицях	-6931
▁мінімум	-6932
▁новопав	-6933
▁загальна	-6934
▁засобами	-6935
▁шевченків	-6936
▁зеленським	-6937
▁останнього	-6938
▁споживання	-6939
ем	-6940
ary	-6941
лог	-6942
мія	-6943
▁виш	-6944
▁епі	-6945
▁зап	-6946
▁зво	-6947
▁рук	-6948
▁стя	-6949
▁іго	-6950
▁ляєн	-6951
▁поли	-6952
кового	-6953
▁непри	-6954
▁заареш	-6955
▁поніве	-6956
▁правила	-6957
▁автобуси	-6958
▁норвегії	-6959
▁інфографі	-6960
▁захоплених	-6961
7.	-6962
ild	-6963
вах	-6964
гах	-6965
тої	-6966
▁мм	-6967
▁нею	-6968
бронь	-6969
▁гвин	-6970
▁мови	-6971
▁сайт	-6972
▁своєю	-6973
▁угоду	-6974
▁конвен	-6975
▁воєнний	-6976
▁проєкту	-6977
▁десантно	-6978
▁медичних	-6979
▁туреччина	-6980
▁постраждалі	-6981
▁провадження	-6982
ціон	-6983
захід	-6984
кінці	-6985
стану	-6986
▁адво	-6987
▁еска	-6988
▁піти	-6989
▁таєм	-6990
▁ціло	-6991
▁визво	-6992
▁викли	-6993
▁перей	-6994
▁пішли	-6995
▁сцена	-6996
▁сімей	-6997
▁докази	-6998
▁самого	-6999
▁зазнала	-7000
▁начебто	-7001
▁уникнути	-7002
▁конфлікту	-7003
▁луганщини	-7004
73	-7005
gle	-7006
▁гім	-7007
▁смт	-7008
тверо	-7009
▁віку	-7010
▁чима	-7011
▁героя	-7012
▁етері	-7013
▁залеж	-7014
▁солдат	-7015
▁узбере	-7016
▁ухвалив	-7017
▁інвести	-7018
▁суверені	-7019
▁міністрів	-7020
▁напрямків	-7021
▁сухопутних	-7022
▁територіальна	-7023
ab	-7024
ct	-7025
▁78	-7026
▁isw	-7027
▁сан	-7028
▁воен	-7029
▁тест	-7030
▁ході	-7031
▁руках	-7032
▁супер	-7033
▁устан	-7034
▁штати	-7035
▁байрак	-7036
▁дмитра	-7037
▁палива	-7038
▁патріо	-7039
▁єдиний	-7040
міністер	-7041
▁буданов	-7042
▁джонсон	-7043
▁зустрів	-7044
▁позбави	-7045
▁публічно	-7046
▁законодав	-7047
▁переселен	-7048
▁розпочали	-7049
▁залишилися	-7050
▁президентка	-7051
▁86	-7052
пінь	-7053
▁ара	-7054
▁осе	-7055
черво	-7056
▁бюро	-7057
▁русс	-7058
тивний	-7059
▁надає	-7060
▁проба	-7061
зокрема	-7062
▁вперед	-7063
▁надали	-7064
▁округу	-7065
▁тривог	-7066
▁бородян	-7067
▁данілов	-7068
▁нафтоба	-7069
▁нічного	-7070
▁повного	-7071
▁ужгород	-7072
▁зберегти	-7073
▁знищують	-7074
▁продукції	-7075
▁підтримав	-7076
▁моніторинг	-7077
42	-7078
hen	-7079
лею	-7080
нню	-7081
▁nas	-7082
▁бун	-7083
▁сні	-7084
ватий	-7085
▁пари	-7086
▁інци	-7087
▁автор	-7088
▁групу	-7089
▁кадри	-7090
▁києву	-7091
▁лінія	-7092
▁знають	-7093
▁першої	-7094
▁рішень	-7095
▁сканда	-7096
▁спосіб	-7097
▁спрацю	-7098
▁зенітних	-7099
▁працюємо	-7100
▁спротиву	-7101
▁державний	-7102
▁кириленко	-7103
▁готовності	-7104
▁населеному	-7105
▁громадського	-7106
ky	-7107
▁сє	-7108
несе	-7109
тоні	-7110
шили	-7111
баром	-7112
лівки	-7113
спіль	-7114
▁нара	-7115
янська	-7116
▁обере	-7117
▁внесок	-7118
▁каналу	-7119
▁путіну	-7120
▁церкви	-7121
▁чомусь	-7122
▁пілотів	-7123
▁херсону	-7124
▁англійсь	-7125
▁визнання	-7126
▁документ	-7127
▁донецьку	-7128
▁невідомо	-7129
▁потрібен	-7130
▁протидії	-7131
▁цивільну	-7132
запорізька	-7133
▁аеродрому	-7134
▁відновили	-7135
▁найманців	-7136
▁одночасно	-7137
▁пацієнтів	-7138
▁череватий	-7139
▁військовій	-7140
▁повідомлень	-7141
▁прокуратура	-7142
309	-7143
ope	-7144
нар	-7145
чей	-7146
▁79	-7147
▁ap	-7148
жати	-7149
▁дбр	-7150
▁дра	-7151
▁база	-7152
▁били	-7153
▁знов	-7154
▁люби	-7155
▁опзж	-7156
▁особ	-7157
▁адмін	-7158
▁впали	-7159
ational	-7160
▁ворожу	-7161
▁місяця	-7162
▁прийма	-7163
▁прикла	-7164
▁робимо	-7165
▁спроба	-7166
▁хочемо	-7167
▁закрити	-7168
▁пройшли	-7169
▁розмови	-7170
слідкуйте	-7171
▁боротьбі	-7172
▁партнери	-7173
▁засіданні	-7174
▁називають	-7175
▁отримають	-7176
▁іранських	-7177
▁здійснюють	-7178
▁львівській	-7179
▁очікується	-7180
▁підкреслив	-7181
▁відсутність	-7182
екс	-7183
шено	-7184
ятеро	-7185
▁бази	-7186
▁зліт	-7187
▁прор	-7188
▁схови	-7189
▁запобі	-7190
▁студен	-7191
▁бойової	-7192
▁вінниці	-7193
▁західні	-7194
▁лікарня	-7195
▁передає	-7196
▁потужні	-7197
▁депутати	-7198
▁додатково	-7199
▁стабіліза	-7200
▁наприкінці	-7201
▁словаччини	-7202
▁колаборантів	-7203
▁таврійському	-7204
ron	-7205
лене	-7206
нило	-7207
ліття	-7208
▁реаг	-7209
▁слаб	-7210
▁інте	-7211
▁виїзд	-7212
▁намір	-7213
▁сприя	-7214
▁чекає	-7215
▁дитину	-7216
▁запаси	-7217
▁японії	-7218
агресора	-7219
▁виникла	-7220
▁показав	-7221
азовсталь	-7222
▁вагнерів	-7223
▁севастополі	-7224
28	-7225
▁🇵	-7226
рих	-7227
зова	-7228
нків	-7229
роди	-7230
смен	-7231
єнні	-7232
▁как	-7233
▁виро	-7234
▁лиша	-7235
▁несе	-7236
▁слів	-7237
призна	-7238
▁важкі	-7239
▁напру	-7240
▁палає	-7241
▁радіа	-7242
спеціаль	-7243
терорист	-7244
▁виїхали	-7245
▁департа	-7246
▁значних	-7247
▁перемож	-7248
▁поверне	-7249
▁бойового	-7250
▁втратила	-7251
▁кордонів	-7252
▁північно	-7253
▁слідства	-7254
▁фінансів	-7255
зив	-7256
▁хе	-7257
діти	-7258
▁рай	-7259
▁сей	-7260
борон	-7261
▁terr	-7262
▁донь	-7263
▁грана	-7264
▁зобра	-7265
▁бачили	-7266
▁варіан	-7267
▁лідера	-7268
▁саміту	-7269
▁стоїть	-7270
▁авіабом	-7271
▁порівня	-7272
▁гарантії	-7273
▁посмертно	-7274
▁активістів	-7275
▁готовність	-7276
▁матеріалів	-7277
▁безпосередньо	-7278
1%	-7279
pr	-7280
мні	-7281
сля	-7282
▁мы	-7283
▁ох	-7284
лену	-7285
ніть	-7286
стка	-7287
шенка	-7288
▁заля	-7289
▁обви	-7290
▁сила	-7291
▁ціни	-7292
▁вирод	-7293
▁вісім	-7294
▁лаври	-7295
▁литва	-7296
▁десант	-7297
▁значні	-7298
▁невели	-7299
▁неодно	-7300
▁перспе	-7301
▁пункті	-7302
▁підклю	-7303
▁четверо	-7304
▁диверсій	-7305
▁костянти	-7306
▁перевезення	-7307
▁житомирській	-7308
yt	-7309
лове	-7310
тній	-7311
довій	-7312
ятник	-7313
▁реда	-7314
ментів	-7315
▁андже	-7316
▁освіт	-7317
▁позна	-7318
▁служб	-7319
▁увесь	-7320
▁інший	-7321
▁борони	-7322
▁однією	-7323
▁авіацію	-7324
▁кораблів	-7325
▁спортсме	-7326
▁закупівлю	-7327
▁незабаром	-7328
▁повернули	-7329
▁положення	-7330
▁продовжуємо	-7331
тія	-7332
мину	-7333
пець	-7334
тьми	-7335
ївці	-7336
▁обу	-7337
▁очи	-7338
льній	-7339
▁море	-7340
▁мура	-7341
▁випро	-7342
▁данії	-7343
▁живим	-7344
▁крові	-7345
▁назав	-7346
▁страж	-7347
▁виснов	-7348
▁поряту	-7349
▁бойовий	-7350
▁відбито	-7351
▁південь	-7352
▁ярослав	-7353
▁потенціа	-7354
автотехніки	-7355
▁надзвичайно	-7356
дю	-7357
ore	-7358
1076	-7359
ману	-7360
фіка	-7361
єння	-7362
▁res	-7363
▁пше	-7364
ськра	-7365
▁брав	-7366
▁guard	-7367
▁приці	-7368
▁інста	-7369
сховища	-7370
▁відбій	-7371
донецька	-7372
▁головою	-7373
▁запусти	-7374
▁прокуро	-7375
▁значення	-7376
▁мільйона	-7377
▁назавжди	-7378
▁штурмови	-7379
▁коридорів	-7380
▁повернувся	-7381
▁мобілізованих	-7382
-8	-7383
3;	-7384
ef	-7385
sh	-7386
ых	-7387
зій	-7388
рід	-7389
50309	-7390
▁брех	-7391
▁кате	-7392
▁крип	-7393
валися	-7394
▁новій	-7395
▁очаків	-7396
▁міськра	-7397
▁розбира	-7398
▁ізраїлю	-7399
▁місцевої	-7400
▁пропонує	-7401
▁аеропорту	-7402
▁приватний	-7403
▁додаткових	-7404
▁формування	-7405
▁51687450309	-7406
/3	-7407
7)	-7408
рг	-7409
нии	-7410
оні	-7411
січ	-7412
▁ги	-7413
▁дам	-7414
10761	-7415
могою	-7416
після	-7417
річну	-7418
▁врят	-7419
▁циві	-7420
▁їхню	-7421
russia	-7422
▁герой	-7423
▁задля	-7424
▁збері	-7425
▁кібер	-7426
▁площа	-7427
▁прожи	-7428
▁вбитих	-7429
▁війною	-7430
▁медика	-7431
▁партія	-7432
▁правил	-7433
▁пройти	-7434
▁завдань	-7435
▁змушені	-7436
▁послуги	-7437
▁супрово	-7438
▁імпорту	-7439
укренерго	-7440
▁комуніка	-7441
▁надійшло	-7442
▁сторінці	-7443
▁небезпеку	-7444
▁здійснював	-7445
▁захисниками	-7446
▁європарламен	-7447
▁зареєстрована	-7448
▁сєвєродонецька	-7449
сен	-7450
hing	-7451
рель	-7452
▁сен	-7453
▁хор	-7454
бавов	-7455
овану	-7456
▁5375	-7457
▁кова	-7458
овуючи	-7459
▁берег	-7460
▁водою	-7461
▁харак	-7462
▁дітьми	-7463
▁листів	-7464
▁макрон	-7465
▁масово	-7466
▁правду	-7467
▁соледа	-7468
▁дефіцит	-7469
▁дивіться	-7470
▁неймовір	-7471
▁тероризму	-7472
▁споживачів	-7473
дніпропетровська	-7474
бє	-7475
🇺🇸	-7476
man	-7477
щує	-7478
гіон	-7479
дній	-7480
найш	-7481
наші	-7482
▁1,5	-7483
перед	-7484
ційне	-7485
штайн	-7486
▁пуск	-7487
▁фігу	-7488
▁їхня	-7489
янську	-7490
▁запев	-7491
▁каран	-7492
▁коалі	-7493
▁контр	-7494
▁стрім	-7495
квартир	-7496
найшвид	-7497
▁лідери	-7498
▁продаж	-7499
▁америки	-7500
▁майданчи	-7501
▁стрілець	-7502
▁ідентифі	-7503
▁закликали	-7504
▁збройними	-7505
▁зазначають	-7506
звер	-7507
тіла	-7508
ують	-7509
▁емо	-7510
▁мат	-7511
▁усю	-7512
джені	-7513
ччина	-7514
▁шкіл	-7515
▁повну	-7516
▁успіх	-7517
▁бачити	-7518
▁перево	-7519
▁активні	-7520
▁будинках	-7521
▁вартістю	-7522
▁здається	-7523
▁інформує	-7524
▁захищають	-7525
▁союзників	-7526
конференції	-7527
▁британська	-7528
▁доведеться	-7529
▁нідерланди	-7530
▁мобілізацію	-7531
▁законопроєкт	-7532
21	-7533
4,	-7534
9,	-7535
бору	-7536
ліку	-7537
прес	-7538
▁бла	-7539
▁дис	-7540
▁оль	-7541
части	-7542
▁дору	-7543
зувати	-7544
▁жінку	-7545
▁зерно	-7546
▁конта	-7547
джувати	-7548
▁вздовж	-7549
▁життям	-7550
▁закону	-7551
▁наталія	-7552
▁бахмутом	-7553
▁побачити	-7554
▁програму	-7555
▁неоднораз	-7556
▁пасажирів	-7557
▁відмовився	-7558
▁заборонили	-7559
▁нагородами	-7560
▁нацгвардії	-7561
▁обстрілював	-7562
4;	-7563
5,	-7564
9;	-7565
▁57	-7566
жами	-7567
марі	-7568
сний	-7569
▁брю	-7570
▁гео	-7571
▁ряд	-7572
▁бери	-7573
▁кара	-7574
▁мемо	-7575
овиків	-7576
▁відки	-7577
▁декла	-7578
▁мітинг	-7579
▁послуг	-7580
▁приїхав	-7581
▁виявлення	-7582
▁відключень	-7583
▁відправити	-7584
▁допоможуть	-7585
▁керівництва	-7586
▁багатоквартир	-7587
43	-7588
ya	-7589
yk	-7590
ams	-7591
ico	-7592
▁96	-7593
▁444	-7594
▁700	-7595
▁mar	-7596
▁іфа	-7597
рівці	-7598
тором	-7599
▁звір	-7600
▁обсє	-7601
тнього	-7602
▁кроки	-7603
чергове	-7604
▁вступу	-7605
▁генсек	-7606
▁зусиль	-7607
▁кривий	-7608
▁європа	-7609
протягом	-7610
▁агресор	-7611
▁поїздів	-7612
▁причина	-7613
▁просува	-7614
▁складів	-7615
▁теплові	-7616
▁швидкої	-7617
▁закупівлі	-7618
▁якнайшвид	-7619
cz	-7620
ат	-7621
ев	-7622
ый	-7623
тям	-7624
дують	-7625
ляція	-7626
нками	-7627
центр	-7628
▁155-	-7629
тичній	-7630
▁перше	-7631
▁покла	-7632
▁чітко	-7633
кинджал	-7634
▁азовста	-7635
▁включно	-7636
▁інтерне	-7637
▁вивчення	-7638
▁виключно	-7639
▁належить	-7640
▁обвинува	-7641
▁прапором	-7642
▁активісти	-7643
▁резолюцію	-7644
▁артилерією	-7645
▁перемовини	-7646
▁подальшого	-7647
▁поповнення	-7648
▁підтримали	-7649
▁харківщина	-7650
2;	-7651
ev	-7652
тся	-7653
вибу	-7654
лину	-7655
нена	-7656
▁тка	-7657
барго	-7658
ченні	-7659
▁верх	-7660
▁полу	-7661
▁факт	-7662
▁колек	-7663
▁остро	-7664
▁єрмак	-7665
▁венеді	-7666
▁зникли	-7667
▁поділи	-7668
▁полков	-7669
▁рекорд	-7670
▁роботі	-7671
▁родини	-7672
▁спрост	-7673
▁антонів	-7674
▁відпові	-7675
▁усвідом	-7676
▁цілодоб	-7677
▁артилерію	-7678
▁патріарха	-7679
▁прокурора	-7680
▁гелікоптер	-7681
▁міністерка	-7682
▁броньованої	-7683
▁інфраструктур	-7684
az	-7685
ton	-7686
tyn	-7687
цеп	-7688
stop	-7689
санк	-7690
стри	-7691
▁гаа	-7692
▁дол	-7693
▁топ	-7694
дуємо	-7695
путін	-7696
▁миро	-7697
▁омбр	-7698
▁двома	-7699
▁видали	-7700
▁збиття	-7701
▁гендире	-7702
▁надісла	-7703
▁суттєво	-7704
▁чорноба	-7705
▁причиною	-7706
▁матеріали	-7707
▁підписали	-7708
▁референду	-7709
▁залишилося	-7710
▁співробітники	-7711
їнка	-7712
▁130	-7713
▁асо	-7714
▁клу	-7715
дноду	-7716
здійс	-7717
шений	-7718
щенні	-7719
▁вшан	-7720
▁горі	-7721
▁мого	-7722
▁низь	-7723
▁ризик	-7724
єднаних	-7725
▁кулеме	-7726
▁пережи	-7727
▁урсула	-7728
▁утрима	-7729
▁деокупа	-7730
▁посеред	-7731
▁проблем	-7732
▁болгарії	-7733
▁атакувати	-7734
▁небезпека	-7735
▁окуповані	-7736
▁долучайтесь	-7737
▁продовжуються	-7738
27	-7739
sp	-7740
зв	-7741
ндо	-7742
▁en	-7743
звіл	-7744
фрон	-7745
якої	-7746
▁улю	-7747
тацію	-7748
▁курс	-7749
▁потя	-7750
▁тата	-7751
наразі	-7752
▁креди	-7753
▁окрема	-7754
▁штатів	-7755
київська	-7756
▁великій	-7757
▁відомий	-7758
▁мільйон	-7759
▁причини	-7760
володимир	-7761
▁guardian	-7762
▁конститу	-7763
▁обслугов	-7764
▁оточення	-7765
▁ухвалила	-7766
українська	-7767
▁зростання	-7768
▁кількістю	-7769
▁настільки	-7770
▁окупований	-7771
▁найближчими	-7772
/7	-7773
яни	-7774
info	-7775
пила	-7776
пром	-7777
▁точ	-7778
луган	-7779
ляцію	-7780
▁роль	-7781
▁сире	-7782
▁сербі	-7783
▁звідти	-7784
▁ремонт	-7785
▁youtube	-7786
▁виїжджа	-7787
▁давайте	-7788
▁ембарго	-7789
▁компенса	-7790
▁придбати	-7791
▁завдавати	-7792
▁очільника	-7793
▁найбільший	-7794
▁терористів	-7795
▁харківського	-7796
▁перегрупування	-7797
ek	-7798
fe	-7799
ym	-7800
▁63	-7801
▁бтр	-7802
▁ква	-7803
▁ссо	-7804
▁теа	-7805
летів	-7806
▁дтек	-7807
▁задо	-7808
▁губер	-7809
▁змогу	-7810
▁низку	-7811
▁похов	-7812
▁розір	-7813
▁сторі	-7814
▁вислов	-7815
▁причин	-7816
▁третій	-7817
▁простір	-7818
▁околицях	-7819
▁потрапила	-7820
▁слідкуйте	-7821
броньованих	-7822
▁відправили	-7823
▁передадуть	-7824
▁гуманітарного	-7825
bot	-7826
рож	-7827
яче	-7828
єра	-7829
▁41	-7830
▁аж	-7831
йшло	-7832
люва	-7833
фіна	-7834
ксанд	-7835
лював	-7836
▁живи	-7837
▁суді	-7838
▁укла	-7839
▁арест	-7840
▁відно	-7841
▁запов	-7842
▁почне	-7843
▁силах	-7844
▁катего	-7845
▁усклад	-7846
▁змінити	-7847
▁оборона	-7848
▁продовж	-7849
▁реєстра	-7850
▁артилери	-7851
▁контракт	-7852
▁мотострі	-7853
▁цифрової	-7854
▁передовій	-7855
▁відповідає	-7856
▁провокації	-7857
ек	-7858
200	-7859
bit	-7860
или	-7861
▁кг	-7862
різа	-7863
слан	-7864
▁ков	-7865
бахму	-7866
вомай	-7867
▁ваша	-7868
▁зерн	-7869
▁роти	-7870
тельно	-7871
▁балак	-7872
▁кориг	-7873
▁мовою	-7874
▁обійш	-7875
▁патро	-7876
▁ринок	-7877
▁івана	-7878
▁догово	-7879
▁лікарі	-7880
▁травми	-7881
іскандер	-7882
▁russian	-7883
▁запрацю	-7884
▁місцева	-7885
▁прийшли	-7886
▁статусу	-7887
▁боротьбу	-7888
▁лікарень	-7889
▁переймен	-7890
▁протисто	-7891
▁свідчить	-7892
▁кандидата	-7893
▁необхідну	-7894
▁пентагону	-7895
▁поступово	-7896
▁пролунали	-7897
▁лисичанська	-7898
si	-7899
▁3.	-7900
дачі	-7901
тним	-7902
▁fre	-7903
▁вал	-7904
▁ниж	-7905
▁фун	-7906
йтена	-7907
плень	-7908
ковані	-7909
▁актор	-7910
▁кожну	-7911
ливості	-7912
▁обміну	-7913
▁витрати	-7914
▁ердоган	-7915
▁збитків	-7916
▁брудноду	-7917
▁покинути	-7918
▁самостій	-7919
▁найближчі	-7920
▁платформа	-7921
▁представи	-7922
▁потребують	-7923
▁фінансової	-7924
▁білоруських	-7925
▁підтвердили	-7926
▁маріупольців	-7927
▁медпрацівників	-7928
бы	-7929
кло	-7930
▁🇺🇸	-7931
німе	-7932
енера	-7933
▁весе	-7934
▁можу	-7935
дослід	-7936
▁владі	-7937
▁мешка	-7938
▁розпа	-7939
▁члени	-7940
▁понеді	-7941
▁гаубиці	-7942
▁повітрі	-7943
▁попасна	-7944
▁солдати	-7945
▁ступеня	-7946
▁чорноби	-7947
залізниці	-7948
▁відстані	-7949
▁обіцяють	-7950
▁останніх	-7951
▁постійні	-7952
▁труханов	-7953
▁спецслужби	-7954
▁сполучення	-7955
▁неодноразово	-7956
▁американський	-7957
зя	-7958
500	-7959
нор	-7960
хту	-7961
link	-7962
гами	-7963
гаря	-7964
сток	-7965
▁збі	-7966
▁зим	-7967
▁кір	-7968
менко	-7969
▁зраз	-7970
▁отже	-7971
▁чути	-7972
▁компо	-7973
▁спроб	-7974
▁треть	-7975
▁ексклю	-7976
▁ескала	-7977
▁переду	-7978
▁першим	-7979
▁притяг	-7980
▁втратив	-7981
▁червоно	-7982
транспорт	-7983
▁венедікт	-7984
▁потужності	-7985
▁поліцейські	-7986
▁вибухонебезпе	-7987
3,	-7988
вір	-7989
▁3-	-7990
enko	-7991
буть	-7992
рада	-7993
oogle	-7994
дайте	-7995
жертв	-7996
львів	-7997
совно	-7998
сться	-7999
черка	-8000
▁втім	-8001
▁мака	-8002
▁несу	-8003
▁рогу	-8004
▁трофе	-8005
▁основі	-8006
▁коридор	-8007
▁монасти	-8008
▁стандар	-8009
▁фільтра	-8010
▁бережіть	-8011
▁отримують	-8012
▁запорізьку	-8013
▁окупаційні	-8014
▁президенту	-8015
▁використати	-8016
5.	-8017
8;	-8018
дам	-8019
налі	-8020
ніки	-8021
▁фер	-8022
григо	-8023
▁віді	-8024
▁віру	-8025
ностей	-8026
▁вкрай	-8027
▁холод	-8028
▁брюссе	-8029
▁заявку	-8030
▁посвід	-8031
▁привіт	-8032
▁чимало	-8033
▁вимагає	-8034
▁дніпров	-8035
▁обличчя	-8036
▁ресурси	-8037
▁соледар	-8038
▁фахівці	-8039
▁відвідав	-8040
▁звичайно	-8041
веродонець	-8042
▁декількох	-8043
▁звільнено	-8044
▁державними	-8045
/2	-8046
6.	-8047
6;	-8048
єс	-8049
ice	-8050
кси	-8051
▁ev	-8052
▁bbc	-8053
народ	-8054
▁агро	-8055
▁міни	-8056
лювали	-8057
самбле	-8058
▁вірме	-8059
▁добри	-8060
язнення	-8061
▁комуні	-8062
▁мережу	-8063
▁прекра	-8064
▁приско	-8065
▁речови	-8066
▁сигнал	-8067
▁спромо	-8068
▁хреста	-8069
лізувати	-8070
▁облради	-8071
▁олексія	-8072
▁шукають	-8073
▁продукти	-8074
▁союзники	-8075
▁цінності	-8076
▁експертів	-8077
▁продовжити	-8078
▁гуманітарні	-8079
▁здійснювати	-8080
2-	-8081
gm	-8082
ji	-8083
se	-8084
мав	-8085
пою	-8086
шти	-8087
дьми	-8088
▁199	-8089
▁вой	-8090
▁зос	-8091
▁руї	-8092
▁ілю	-8093
▁(+2)	-8094
▁моде	-8095
▁снай	-8096
парати	-8097
▁повне	-8098
▁підпа	-8099
▁альтер	-8100
▁дозвіл	-8101
▁друзів	-8102
▁народи	-8103
▁зможемо	-8104
▁калібру	-8105
▁одиниці	-8106
▁ракетою	-8107
▁речниця	-8108
▁якомога	-8109
▁вчергове	-8110
▁залежить	-8111
▁членство	-8112
▁впевнений	-8113
▁прикриття	-8114
▁рекоменда	-8115
▁червоного	-8116
▁громадянам	-8117
рс	-8118
/13	-8119
art	-8120
лет	-8121
чав	-8122
глих	-8123
ерія	-8124
обра	-8125
▁шар	-8126
льною	-8127
▁ваши	-8128
▁вось	-8129
▁дето	-8130
▁друж	-8131
▁знаю	-8132
▁пись	-8133
▁лондо	-8134
▁intern	-8135
▁органи	-8136
▁природ	-8137
▁військо	-8138
▁депорта	-8139
▁зниклих	-8140
▁лікарню	-8141
▁порядку	-8142
▁станцій	-8143
▁їхнього	-8144
▁загрозою	-8145
▁стосовно	-8146
▁вогневого	-8147
▁демонстра	-8148
▁примусово	-8149
▁проханням	-8150
▁ініціативу	-8151
миколаївщина	-8152
▁військовому	-8153
▁майбутньому	-8154
▁підтверджує	-8155
▁необхідності	-8156
▁кримінального	-8157
der	-8158
гло	-8159
діє	-8160
мах	-8161
цев	-8162
вері	-8163
енні	-8164
стий	-8165
тесь	-8166
тинг	-8167
▁зар	-8168
канал	-8169
праць	-8170
▁вашу	-8171
▁дпсу	-8172
▁обид	-8173
▁іншу	-8174
▁вартою	-8175
▁виходу	-8176
▁джерел	-8177
▁людьми	-8178
▁накопи	-8179
▁подола	-8180
▁радбез	-8181
▁власних	-8182
▁гостоме	-8183
▁громаду	-8184
▁каховці	-8185
▁тривали	-8186
здійснено	-8187
міністром	-8188
▁залишили	-8189
▁оборонні	-8190
▁персонал	-8191
▁показати	-8192
▁поставок	-8193
госпіталіз	-8194
▁небезпеки	-8195
▁інституту	-8196
▁південному	-8197
▁зафіксували	-8198
▁спеціальних	-8199
▁укрзалізниця	-8200
▁європейський	-8201
▁трансформації	-8202
госпіталізовано	-8203
3.	-8204
зан	-8205
щею	-8206
▁ex	-8207
▁im	-8208
жних	-8209
ряму	-8210
▁дух	-8211
▁фрн	-8212
крити	-8213
нівки	-8214
пуляр	-8215
▁have	-8216
▁опір	-8217
▁тари	-8218
▁висна	-8219
▁гуляй	-8220
▁данія	-8221
▁дітям	-8222
▁лавро	-8223
▁облаш	-8224
▁погля	-8225
▁профе	-8226
▁рейси	-8227
▁австрії	-8228
▁партиза	-8229
▁головний	-8230
▁зазначає	-8231
▁перемага	-8232
▁потужний	-8233
▁батальйон	-8234
▁нацполіції	-8235
▁гелікоптери	-8236
▁голосування	-8237
▁американських	-8238
cov	-8239
кав	-8240
стр	-8241
▁іі	-8242
1114	-8243
ліні	-8244
поле	-8245
▁обо	-8246
▁тес	-8247
гнали	-8248
уполь	-8249
▁заки	-8250
▁кабі	-8251
▁опла	-8252
▁розв	-8253
▁тере	-8254
▁інак	-8255
▁діють	-8256
▁ласка	-8257
▁мінци	-8258
▁побуд	-8259
▁потяг	-8260
▁сходу	-8261
▁шахра	-8262
ниччині	-8263
▁вистав	-8264
▁донбас	-8265
▁4441114	-8266
▁експрес	-8267
▁злочину	-8268
▁комітет	-8269
▁кремлів	-8270
▁медиків	-8271
▁передав	-8272
▁передмі	-8273
кількість	-8274
▁ділянках	-8275
▁корабель	-8276
▁норвегія	-8277
▁пентагон	-8278
▁припиняє	-8279
▁свідчать	-8280
▁твіттері	-8281
▁авіаційні	-8282
▁включаючи	-8283
▁донеччина	-8284
▁користува	-8285
▁покращити	-8286
▁працювали	-8287
▁спецопера	-8288
▁вечірньому	-8289
▁незважаючи	-8290
▁повітряний	-8291
▁територією	-8292
укрзалізниця	-8293
▁придністров	-8294
▁великобританії	-8295
рух	-8296
юся	-8297
ючі	-8298
▁ne	-8299
волю	-8300
вони	-8301
краз	-8302
нись	-8303
розі	-8304
▁мит	-8305
надця	-8306
▁взяв	-8307
▁готе	-8308
▁зону	-8309
▁сиро	-8310
▁цими	-8311
риться	-8312
▁брова	-8313
▁глави	-8314
▁заруч	-8315
▁заста	-8316
▁клієн	-8317
▁мисте	-8318
▁назву	-8319
▁нести	-8320
▁опору	-8321
▁факти	-8322
люються	-8323
▁заклад	-8324
▁поліго	-8325
▁тримати	-8326
▁хлопець	-8327
▁янукови	-8328
▁вдасться	-8329
▁впродовж	-8330
▁повернула	-8331
▁спецпризна	-8332
пом	-8333
шає	-8334
тали	-8335
тіло	-8336
▁арт	-8337
▁зде	-8338
▁мій	-8339
▁сва	-8340
-300.	-8341
язків	-8342
▁семи	-8343
▁спон	-8344
▁polit	-8345
▁блока	-8346
▁герою	-8347
▁зізна	-8348
▁олімп	-8349
▁палив	-8350
▁рекла	-8351
▁саміт	-8352
hington	-8353
європей	-8354
▁вказів	-8355
▁відсіч	-8356
▁швеція	-8357
▁вивезти	-8358
▁переста	-8359
▁верховна	-8360
▁кременчу	-8361
▁обмежень	-8362
▁політику	-8363
▁депутатів	-8364
▁комплекту	-8365
▁прильотів	-8366
▁регулярно	-8367
▁чернігова	-8368
▁розміщення	-8369
aw	-8370
ець	-8371
▁ua	-8372
місце	-8373
повів	-8374
радіо	-8375
стить	-8376
щених	-8377
▁вига	-8378
▁холо	-8379
поверх	-8380
▁бомбо	-8381
техніка	-8382
тичному	-8383
▁впливу	-8384
▁досить	-8385
▁мабуть	-8386
▁селищі	-8387
▁склада	-8388
▁спалах	-8389
▁естонія	-8390
▁функціо	-8391
▁цивіліз	-8392
▁аварійні	-8393
▁білгород	-8394
▁марченко	-8395
▁спостере	-8396
▁консульта	-8397
▁нагадуємо	-8398
▁православ	-8399
▁проходить	-8400
▁безкоштовно	-8401
▁пропагандистів	-8402
▁чорноморського	-8403
9.	-8404
ell	-8405
rad	-8406
ано	-8407
зни	-8408
таж	-8409
▁or	-8410
▁eur	-8411
▁вка	-8412
▁реб	-8413
ступа	-8414
тиків	-8415
▁обох	-8416
▁рейс	-8417
▁увій	-8418
нський	-8419
▁вдень	-8420
▁прото	-8421
▁шпита	-8422
▁іншої	-8423
уванням	-8424
ційному	-8425
єднання	-8426
▁лютому	-8427
▁призов	-8428
▁частин	-8429
▁членом	-8430
▁агресив	-8431
▁білорус	-8432
▁техніці	-8433
▁харкову	-8434
▁відтепер	-8435
▁зупинили	-8436
▁квартали	-8437
▁мужність	-8438
▁первомай	-8439
▁перевіре	-8440
▁прильоти	-8441
▁просторі	-8442
▁444111445	-8443
▁відставку	-8444
▁добровіль	-8445
▁загальнов	-8446
▁зустрівся	-8447
▁луганську	-8448
▁матеріаль	-8449
▁розпочати	-8450
▁washington	-8451
▁зберігання	-8452
▁батьківщину	-8453
▁радіоелектро	-8454
▁спеціального	-8455
▁сєверодонець	-8456
vi	-8457
🏻‍	-8458
ger	-8459
зрк	-8460
тай	-8461
▁88	-8462
form	-8463
ницею	-8464
ского	-8465
сторон	-8466
▁state	-8467
▁мирне	-8468
▁новим	-8469
▁вовчан	-8470
▁ворожа	-8471
▁воюють	-8472
▁слідчі	-8473
▁спонсо	-8474
краматор	-8475
єднаного	-8476
▁гаубиць	-8477
▁медичну	-8478
▁очевидці	-8479
▁прокурор	-8480
▁ядерного	-8481
▁автобусів	-8482
▁офіційних	-8483
▁утримання	-8484
▁сільського	-8485
▁зберігається	-8486
ok	-8487
23:	-8488
499	-8489
жжю	-8490
кві	-8491
нав	-8492
рос	-8493
сну	-8494
▁67	-8495
ount	-8496
граф	-8497
меди	-8498
німа	-8499
тові	-8500
ївки	-8501
▁днр	-8502
▁суб	-8503
жають	-8504
женні	-8505
печер	-8506
ходів	-8507
▁2019	-8508
▁одяг	-8509
▁ціна	-8510
▁❗️❗️	-8511
ованим	-8512
чатиме	-8513
▁анато	-8514
▁литов	-8515
▁розби	-8516
▁якісь	-8517
льників	-8518
▁nasams	-8519
▁широко	-8520
▁якості	-8521
▁коротке	-8522
▁позиція	-8523
▁складає	-8524
▁сторона	-8525
▁боротьба	-8526
▁вогневих	-8527
▁відносин	-8528
▁відійшов	-8529
▁справжні	-8530
▁блокувати	-8531
▁врятували	-8532
▁населений	-8533
▁оборонних	-8534
▁предметів	-8535
▁швейцарії	-8536
▁заборонено	-8537
▁московського	-8538
▁застосуванням	-8539
вп	-8540
нці	-8541
сує	-8542
ster	-8543
опар	-8544
уряд	-8545
▁mav	-8546
▁дрг	-8547
▁пля	-8548
кевич	-8549
ковим	-8550
ситуа	-8551
▁арти	-8552
▁вище	-8553
▁глибо	-8554
▁житло	-8555
▁запит	-8556
▁казав	-8557
▁києво	-8558
▁розді	-8559
▁батаре	-8560
▁влучив	-8561
▁відвер	-8562
▁канали	-8563
▁обшуки	-8564
▁шукати	-8565
▁інакше	-8566
▁деклара	-8567
▁розраху	-8568
▁розігра	-8569
▁starlink	-8570
▁вивозять	-8571
▁цьогоріч	-8572
▁відповіді	-8573
▁житлового	-8574
▁збільшити	-8575
▁фінляндія	-8576
▁закінчення	-8577
▁намагались	-8578
▁українцями	-8579
▁пересування	-8580
▁international	-8581
qu	-8582
-30	-8583
gov	-8584
лим	-8585
▁73	-8586
▁їз	-8587
wift	-8588
вобо	-8589
гань	-8590
▁діб	-8591
▁маю	-8592
▁чуд	-8593
еремо	-8594
▁дуда	-8595
▁знак	-8596
▁поко	-8597
язаних	-8598
▁впала	-8599
▁життє	-8600
▁приду	-8601
▁якраз	-8602
▁ігоря	-8603
безпеки	-8604
вагнера	-8605
▁споруд	-8606
▁ірпінь	-8607
▁бєлгоро	-8608
▁народів	-8609
▁околиці	-8610
▁високопо	-8611
▁білоруссю	-8612
▁продуктів	-8613
▁ракетники	-8614
▁підвищення	-8615
▁якнайшвидше	-8616
юн	-8617
arm	-8618
ict	-8619
ieg	-8620
ren	-8621
нім	-8622
ital	-8623
чами	-8624
▁джа	-8625
▁див	-8626
▁ола	-8627
чуття	-8628
▁2000	-8629
▁кмда	-8630
▁неді	-8631
▁побу	-8632
▁соба	-8633
▁інша	-8634
бували	-8635
полков	-8636
▁mavic	-8637
▁карти	-8638
▁котор	-8639
▁людми	-8640
▁пуски	-8641
▁уваги	-8642
▁заплан	-8643
▁зупиня	-8644
▁важкому	-8645
▁говорив	-8646
▁домовле	-8647
▁забрали	-8648
▁пояснив	-8649
▁сектору	-8650
▁геноциду	-8651
▁авіаудару	-8652
▁злочинців	-8653
▁подякував	-8654
▁спільноти	-8655
▁ліквідації	-8656
▁підготовка	-8657
▁розташування	-8658
▁загальновійсь	-8659
▁інформаційної	-8660
ge	-8661
-52	-8662
мір	-8663
ону	-8664
▁пє	-8665
вані	-8666
жний	-8667
▁аук	-8668
▁бит	-8669
тових	-8670
▁агра	-8671
▁брен	-8672
▁ушко	-8673
явився	-8674
▁окрем	-8675
▁омбуд	-8676
▁щасли	-8677
нського	-8678
▁знімки	-8679
▁латвія	-8680
▁окремі	-8681
▁присво	-8682
▁забрати	-8683
▁королів	-8684
▁світові	-8685
▁заборона	-8686
▁захисник	-8687
▁збирають	-8688
▁напрямки	-8689
▁помітили	-8690
▁чемпіона	-8691
▁узбережжя	-8692
▁укренерго	-8693
житомирська	-8694
▁катастрофи	-8695
▁планується	-8696
▁волонтерські	-8697
▁електроенергію	-8698
kt	-8699
цін	-8700
шня	-8701
ions	-8702
ново	-8703
▁сра	-8704
gmail	-8705
захис	-8706
тному	-8707
▁from	-8708
▁арте	-8709
▁експ	-8710
▁пове	-8711
▁стре	-8712
валося	-8713
генера	-8714
диться	-8715
язання	-8716
▁даний	-8717
▁дорос	-8718
▁дрона	-8719
▁найви	-8720
▁періо	-8721
▁строк	-8722
▁школу	-8723
спонден	-8724
▁беруть	-8725
▁воював	-8726
▁москву	-8727
▁церемо	-8728
▁ядерну	-8729
▁європу	-8730
▁гвардії	-8731
▁домівки	-8732
▁зростає	-8733
▁прийняв	-8734
▁місцевим	-8735
▁очевидно	-8736
▁ресурсів	-8737
▁розповіла	-8738
▁дипломатів	-8739
▁дислокації	-8740
▁поліському	-8741
▁транспорті	-8742
▁відповідний	-8743
▁конференції	-8744
▁краматорська	-8745
▁необхідність	-8746
▁сьогоднішній	-8747
46	-8748
58	-8749
pol	-8750
йні	-8751
▁$1	-8752
моск	-8753
▁pet	-8754
▁жив	-8755
▁нбу	-8756
▁сад	-8757
▁уро	-8758
гають	-8759
тропо	-8760
ченка	-8761
▁азер	-8762
▁зміг	-8763
▁трам	-8764
меться	-8765
овуємо	-8766
тифіка	-8767
▁відсо	-8768
▁олена	-8769
▁такою	-8770
▁усіма	-8771
▁заході	-8772
▁нардеп	-8773
▁травні	-8774
▁антиген	-8775
▁завдано	-8776
▁паспорт	-8777
▁процесу	-8778
▁складно	-8779
▁екстрені	-8780
▁мільярда	-8781
▁набагато	-8782
▁проводив	-8783
▁інстагра	-8784
херсонщина	-8785
▁допустити	-8786
▁озброєнні	-8787
▁проходять	-8788
▁сполучених	-8789
▁незламності	-8790
▁найважливіше	-8791
▁результатами	-8792
▁розповідають	-8793
▁відмовляються	-8794
41	-8795
мим	-8796
шив	-8797
▁gl	-8798
пати	-8799
тону	-8800
▁110	-8801
▁дід	-8802
▁боці	-8803
▁вимк	-8804
▁маск	-8805
▁неру	-8806
▁піде	-8807
▁спад	-8808
держав	-8809
ятайте	-8810
▁діями	-8811
▁офісі	-8812
нюється	-8813
▁paypal	-8814
▁вийшов	-8815
▁дороги	-8816
▁стоять	-8817
▁сумнів	-8818
▁фейсбу	-8819
▁вінниць	-8820
▁приклад	-8821
▁прифрон	-8822
терориста	-8823
▁аеродром	-8824
▁мобільні	-8825
▁поранена	-8826
▁вимагають	-8827
▁зареєстру	-8828
▁залишилось	-8829
▁посольство	-8830
▁пресцентру	-8831
▁відповідати	-8832
▁криворізькому	-8833
ub	-8834
доп	-8835
мію	-8836
ция	-8837
▁мв	-8838
▁🇵🇱	-8839
▁ній	-8840
▁врах	-8841
▁сооб	-8842
▁часи	-8843
▁чули	-8844
триман	-8845
▁вийде	-8846
▁родин	-8847
увалися	-8848
▁асоціа	-8849
▁вашинг	-8850
▁вільню	-8851
▁постан	-8852
▁спряму	-8853
▁боєздат	-8854
▁важлива	-8855
▁ворогів	-8856
▁досягти	-8857
▁родичів	-8858
▁щоденно	-8859
▁politico	-8860
▁відкрито	-8861
▁генштабі	-8862
▁рашистам	-8863
▁світлини	-8864
франківськ	-8865
▁відбулось	-8866
▁відносини	-8867
▁військове	-8868
▁здійснити	-8869
▁наступний	-8870
▁самостійно	-8871
▁евакуйовано	-8872
di	-8873
ад	-8874
ews	-8875
зен	-8876
шев	-8877
▁вщ	-8878
▁чат	-8879
увало	-8880
▁виня	-8881
▁газе	-8882
▁спіл	-8883
валася	-8884
▁again	-8885
▁вщент	-8886
▁любов	-8887
▁могла	-8888
▁належ	-8889
▁збирає	-8890
▁привез	-8891
▁їхньої	-8892
▁азербай	-8893
▁побачив	-8894
▁пройшов	-8895
▁торгове	-8896
▁украинс	-8897
маріуполь	-8898
▁вирішила	-8899
▁віцепрем	-8900
▁зазвичай	-8901
▁невідомі	-8902
▁закликала	-8903
▁переважно	-8904
▁гуманітарна	-8905
▁електромере	-8906
8.	-8907
ам	-8908
яр	-8909
нев	-8910
▁2-	-8911
▁pl	-8912
бомб	-8913
пені	-8914
▁fin	-8915
▁зня	-8916
▁сап	-8917
▁усу	-8918
enger	-8919
деном	-8920
▁гера	-8921
▁гран	-8922
iantyn	-8923
овості	-8924
▁вікто	-8925
▁двері	-8926
▁довід	-8927
▁слово	-8928
▁інспе	-8929
▁russia	-8930
▁колона	-8931
▁колону	-8932
▁масшта	-8933
▁москва	-8934
▁ставки	-8935
▁цілком	-8936
▁автівок	-8937
▁комісія	-8938
▁ремонту	-8939
▁авдіївці	-8940
▁вбивство	-8941
▁коридори	-8942
▁оборонну	-8943
▁далекобій	-8944
▁енергодар	-8945
▁запоріжжю	-8946
▁чергового	-8947
▁вертольоти	-8948
▁громадянин	-8949
▁комунікацій	-8950
▁суспільства	-8951
▁американські	-8952
▁гуманітарний	-8953
29	-8954
ей	-8955
бот	-8956
зда	-8957
йом	-8958
ксе	-8959
▁бк	-8960
логи	-8961
цька	-8962
▁вми	-8963
кордо	-8964
▁vlad	-8965
▁гара	-8966
▁дере	-8967
▁зате	-8968
▁зими	-8969
▁льот	-8970
▁менш	-8971
▁мову	-8972
▁тебе	-8973
полтав	-8974
▁swift	-8975
▁кожне	-8976
▁маєте	-8977
▁перет	-8978
▁віддав	-8979
▁масові	-8980
▁тримає	-8981
▁вокзалу	-8982
▁корпора	-8983
▁перекла	-8984
▁стрічка	-8985
психологі	-8986
▁близьких	-8987
▁великого	-8988
▁випустив	-8989
▁власному	-8990
▁красного	-8991
▁позивним	-8992
▁спеціалі	-8993
▁відбудови	-8994
▁перевірки	-8995
▁постачати	-8996
▁російсько	-8997
▁фінансову	-8998
▁чорнобиль	-8999
▁займається	-9000
▁генераторів	-9001
▁відбуваються	-9002
▁мотострілець	-9003
▁енергосистеми	-9004
so	-9005
ры	-9006
con	-9007
кру	-9008
▁gr	-9009
7899	-9010
бота	-9011
кція	-9012
кіно	-9013
▁105	-9014
▁дви	-9015
▁кад	-9016
▁(+3)	-9017
▁kost	-9018
▁ладу	-9019
▁релі	-9020
мський	-9021
▁самов	-9022
▁сприй	-9023
▁чехія	-9024
4997899	-9025
вається	-9026
▁google	-9027
▁власне	-9028
▁живуть	-9029
▁завали	-9030
▁записа	-9031
▁квітні	-9032
▁льотчи	-9033
▁револю	-9034
▁ростов	-9035
▁салтів	-9036
▁атомної	-9037
▁митропо	-9038
▁нагадаю	-9039
▁реабілі	-9040
▁розголо	-9041
національ	-9042
▁авдіївка	-9043
▁вдається	-9044
▁відповів	-9045
▁морських	-9046
▁особовий	-9047
▁скориста	-9048
▁технікою	-9049
▁поставити	-9050
▁затримання	-9051
▁підтримала	-9052
▁волинському	-9053
▁здійснюється	-9054
▁обслуговування	-9055
▁представниками	-9056
▁госпіталізували	-9057
fi	-9058
zh	-9059
!!!	-9060
23.	-9061
зою	-9062
▁03	-9063
🤝🇺🇦	-9064
ourn	-9065
доби	-9066
овики	-9067
▁they	-9068
дність	-9069
літари	-9070
▁ваших	-9071
▁вторг	-9072
▁земля	-9073
▁катів	-9074
▁непро	-9075
▁страх	-9076
▁тиску	-9077
▁автори	-9078
▁власну	-9079
▁задово	-9080
▁транзи	-9081
▁ділянки	-9082
▁подроби	-9083
▁пристро	-9084
▁розмову	-9085
▁запчасти	-9086
▁наступні	-9087
▁торгівлі	-9088
▁членства	-9089
▁наскільки	-9090
▁обстрілює	-9091
▁опинилися	-9092
▁kostiantyn	-9093
▁ізюмському	-9094
▁будівництво	-9095
▁залишайтеся	-9096
▁майбутнього	-9097
▁розстріляли	-9098
▁керівництвом	-9099
▁прокоментував	-9100
жею	-9101
цов	-9102
добу	-9103
куль	-9104
трим	-9105
▁вті	-9106
▁ліс	-9107
▁stre	-9108
▁боль	-9109
▁кров	-9110
▁орен	-9111
▁сюди	-9112
▁цією	-9113
нентів	-9114
▁vlada	-9115
▁бачив	-9116
▁бунде	-9117
▁невід	-9118
▁опози	-9119
дування	-9120
тивного	-9121
шахедів	-9122
▁життів	-9123
▁правди	-9124
▁рублів	-9125
рамштайн	-9126
▁liberov	-9127
▁всесвіт	-9128
▁доказів	-9129
▁користу	-9130
▁курахів	-9131
▁виявився	-9132
▁громадах	-9133
▁квартири	-9134
▁коридору	-9135
▁очікуємо	-9136
▁паспорти	-9137
▁протесту	-9138
▁спокійно	-9139
▁мешканцям	-9140
▁персональ	-9141
▁перспекти	-9142
▁планували	-9143
▁пробачимо	-9144
▁авіаударів	-9145
▁повідомити	-9146
▁пропонують	-9147
▁херсонщину	-9148
▁встановлено	-9149
▁університету	-9150
,6	-9151
06	-9152
рф	-9153
aily	-9154
лому	-9155
▁кло	-9156
▁рап	-9157
зараз	-9158
сують	-9159
▁акау	-9160
▁анек	-9161
▁леді	-9162
▁прих	-9163
▁соня	-9164
ленням	-9165
▁відва	-9166
▁збила	-9167
▁низки	-9168
▁проду	-9169
▁підня	-9170
▁силою	-9171
▁точки	-9172
▁число	-9173
▁довіря	-9174
▁заснов	-9175
▁вогневе	-9176
▁волнова	-9177
▁віддали	-9178
▁концерт	-9179
▁мистецт	-9180
▁наявною	-9181
▁подібні	-9182
▁форматі	-9183
▁чергову	-9184
▁пролунав	-9185
спеціальна	-9186
▁львівщині	-9187
▁губернатор	-9188
▁володимиром	-9189
▁повернулися	-9190
▁безпілотника	-9191
▁промисловості	-9192
sc	-9193
сай	-9194
чам	-9195
доль	-9196
▁кнр	-9197
▁сму	-9198
лівці	-9199
▁виби	-9200
▁доля	-9201
▁доне	-9202
▁ціле	-9203
▁брали	-9204
▁відво	-9205
▁знали	-9206
▁морем	-9207
▁прини	-9208
▁недопу	-9209
▁італія	-9210
лізували	-9211
▁дівчина	-9212
▁резерви	-9213
▁завдають	-9214
▁кампанії	-9215
▁конфіска	-9216
▁основних	-9217
▁поранили	-9218
▁серйозні	-9219
▁всередині	-9220
▁санкціями	-9221
▁стверджує	-9222
▁забезпечує	-9223
▁спеціально	-9224
▁спрямовані	-9225
▁телеканалу	-9226
▁херсонщина	-9227
▁дезінформації	-9228
▁механізованої	-9229
глу	-9230
дін	-9231
▁ir	-9232
▁пс	-9233
зами	-9234
збро	-9235
зько	-9236
року	-9237
тари	-9238
таря	-9239
▁блі	-9240
▁єнс	-9241
сіння	-9242
▁sars	-9243
▁візь	-9244
кривий	-9245
▁daily	-9246
▁владу	-9247
▁встиг	-9248
▁дасть	-9249
▁дівча	-9250
▁серце	-9251
▁фейки	-9252
▁хорва	-9253
▁шпигу	-9254
▁ірлан	-9255
ційними	-9256
▁terror	-9257
▁вулиць	-9258
▁здатні	-9259
▁колега	-9260
▁колись	-9261
▁контак	-9262
▁подяка	-9263
▁поїзди	-9264
триманні	-9265
▁візитом	-9266
▁заявляє	-9267
▁прийшов	-9268
▁рахунки	-9269
▁туристи	-9270
▁гранатом	-9271
▁пропуску	-9272
▁розпочне	-9273
▁поранений	-9274
▁португалі	-9275
▁відпочинку	-9276
▁підозрюють	-9277
▁тренування	-9278
▁чугуївського	-9279
49	-9280
ect	-9281
iff	-9282
ван	-9283
зор	-9284
лла	-9285
луа	-9286
▁9-	-9287
ence	-9288
дені	-9289
▁мік	-9290
пізна	-9291
▁2015	-9292
▁архі	-9293
▁дзві	-9294
▁нама	-9295
▁насо	-9296
▁ната	-9297
ційним	-9298
ченого	-9299
▁завез	-9300
▁леген	-9301
▁молод	-9302
▁олега	-9303
▁шанта	-9304
▁запуск	-9305
▁читати	-9306
▁екологі	-9307
▁закладу	-9308
▁канцлер	-9309
▁росгвар	-9310
▁техноло	-9311
▁liberova	-9312
▁авдіївки	-9313
▁виділить	-9314
▁вугледар	-9315
▁електрон	-9316
▁загибель	-9317
▁закриття	-9318
▁офіційні	-9319
▁політика	-9320
▁чоловіки	-9321
▁цивільний	-9322
▁верховного	-9323
▁звинувачення	-9324
▁краматорському	-9325
▁госпіталізовано	-9326
▁спостерігається	-9327
8,	-9328
дця	-9329
ссі	-9330
▁99	-9331
вічі	-9332
стку	-9333
▁амі	-9334
▁глу	-9335
десан	-9336
чнуть	-9337
▁serh	-9338
ournal	-9339
▁голод	-9340
▁готів	-9341
▁добра	-9342
▁збори	-9343
▁місія	-9344
▁ресто	-9345
▁річки	-9346
▁батьки	-9347
▁жертви	-9348
▁званих	-9349
▁подиви	-9350
▁церква	-9351
▁контакт	-9352
▁ракетна	-9353
▁рубежів	-9354
▁різними	-9355
▁спільну	-9356
▁вбивають	-9357
▁виходить	-9358
▁обстанов	-9359
▁предмети	-9360
▁фізичних	-9361
▁відбулася	-9362
▁директора	-9363
▁поховання	-9364
▁установок	-9365
▁деокупації	-9366
▁закликаємо	-9367
▁міжнародна	-9368
▁можливостей	-9369
▁підготувати	-9370
▁запропонував	-9371
▁нікопольський	-9372
▁широкомасштаб	-9373
▁пресконференції	-9374
▁,	-9375
кор	-9376
▁(1	-9377
воєн	-9378
ется	-9379
ліка	-9380
ньою	-9381
▁140	-9382
▁dji	-9383
▁біо	-9384
▁кня	-9385
ливих	-9386
стань	-9387
тивну	-9388
якого	-9389
▁меда	-9390
▁номе	-9391
▁ніби	-9392
▁тира	-9393
!!️!!️	-9394
відбій	-9395
очевид	-9396
▁кризи	-9397
▁легко	-9398
▁номер	-9399
▁солов	-9400
пивниць	-9401
▁десять	-9402
▁межами	-9403
▁священ	-9404
▁торець	-9405
▁бояться	-9406
▁викрила	-9407
▁віктора	-9408
▁доступу	-9409
▁зламати	-9410
▁знищена	-9411
▁зробимо	-9412
▁мародер	-9413
▁обороні	-9414
▁першому	-9415
▁схвалив	-9416
▁хоробрі	-9417
▁виступив	-9418
▁державна	-9419
▁конфлікт	-9420
▁живицький	-9421
▁зрозуміти	-9422
▁посилання	-9423
▁правильно	-9424
▁працювала	-9425
▁розуміють	-9426
▁адмінбудів	-9427
▁полоненими	-9428
▁південного	-9429
▁інфографіці	-9430
▁повертаються	-9431
▁псевдореференду	-9432
yi	-9433
шту	-9434
шів	-9435
▁4.	-9436
▁8-	-9437
▁єд	-9438
гані	-9439
йоми	-9440
наци	-9441
онов	-9442
піде	-9443
сфор	-9444
тною	-9445
▁bay	-9446
▁мрі	-9447
націю	-9448
стіше	-9449
▁апте	-9450
▁втік	-9451
▁край	-9452
▁макі	-9453
▁пташ	-9454
▁сина	-9455
допомо	-9456
леного	-9457
ційній	-9458
▁борту	-9459
▁мікро	-9460
▁порти	-9461
тестами	-9462
▁армією	-9463
▁бойову	-9464
▁настав	-9465
▁сильно	-9466
▁journal	-9467
▁волонте	-9468
▁назвали	-9469
▁стануть	-9470
▁увійшли	-9471
▁берислав	-9472
▁десятків	-9473
▁мільярди	-9474
▁пригожин	-9475
▁характер	-9476
вантаження	-9477
досліджень	-9478
▁бердянськ	-9479
▁регіональ	-9480
▁гендиректор	-9481
ush	-9482
жит	-9483
▁$3	-9484
дови	-9485
зову	-9486
рові	-9487
теля	-9488
чека	-9489
шена	-9490
їзді	-9491
▁(+8	-9492
▁sup	-9493
▁рпц	-9494
▁руй	-9495
жених	-9496
телів	-9497
▁bank	-9498
▁грош	-9499
▁нала	-9500
▁наса	-9501
▁отру	-9502
▁видів	-9503
▁віком	-9504
▁григо	-9505
▁житла	-9506
▁задія	-9507
▁неста	-9508
▁прила	-9509
▁притя	-9510
▁прояв	-9511
▁психо	-9512
▁виїзду	-9513
▁гвинто	-9514
▁прагне	-9515
▁призве	-9516
▁прикри	-9517
▁рідним	-9518
▁самому	-9519
▁середи	-9520
▁ґрунту	-9521
▁бронежи	-9522
▁констру	-9523
▁масових	-9524
▁нагадав	-9525
▁отримує	-9526
▁державні	-9527
▁землетру	-9528
▁східному	-9529
▁аналітики	-9530
▁атакувала	-9531
▁вивезення	-9532
▁обійшлося	-9533
▁співчуття	-9534
▁чернігові	-9535
▁зруйнована	-9536
▁подякувати	-9537
▁тероборони	-9538
▁допомагайте	-9539
▁департаменту	-9540
5;	-9541
ks	-9542
yv	-9543
із	-9544
бах	-9545
рми	-9546
▁by	-9547
дило	-9548
тови	-9549
хали	-9550
▁68,	-9551
▁фар	-9552
▁буда	-9553
▁вина	-9554
▁коде	-9555
▁утво	-9556
ховати	-9557
▁бойко	-9558
▁вбити	-9559
▁голос	-9560
▁погір	-9561
▁шляхи	-9562
▁галузі	-9563
▁ірпені	-9564
загальні	-9565
пускають	-9566
▁одещини	-9567
▁ведуться	-9568
▁маршрути	-9569
▁побачили	-9570
▁відкриття	-9571
▁населенню	-9572
▁повітряно	-9573
▁потрапити	-9574
▁поширюйте	-9575
▁труханова	-9576
▁запобіжний	-9577
▁збереження	-9578
▁збирається	-9579
▁моніторингові	-9580
▁💛	-9581
ire	-9582
▁07	-9583
боту	-9584
глиб	-9585
комп	-9586
льдо	-9587
смер	-9588
▁10-	-9589
▁вжи	-9590
креди	-9591
хмель	-9592
язана	-9593
▁безо	-9594
▁вагі	-9595
▁силі	-9596
фінанс	-9597
▁білий	-9598
▁фільм	-9599
▁лівому	-9600
▁паливо	-9601
▁розбір	-9602
▁стояти	-9603
▁супере	-9604
мілітари	-9605
ситуація	-9606
▁боррель	-9607
▁виступу	-9608
▁молдові	-9609
▁областю	-9610
▁притули	-9611
повернись	-9612
▁вистачає	-9613
▁затримано	-9614
▁проведено	-9615
▁замовлення	-9616
▁збираються	-9617
▁масованого	-9618
▁технологій	-9619
▁британський	-9620
▁житомирщині	-9621
▁зруйнованих	-9622
▁угрупування	-9623
▁європейські	-9624
▁червоногриго	-9625
▁запровадження	-9626
ue	-9627
их	-9628
▁br	-9629
вілі	-9630
плав	-9631
цілі	-9632
▁їжі	-9633
брали	-9634
стові	-9635
торію	-9636
▁види	-9637
▁озву	-9638
▁праг	-9639
▁сізо	-9640
вались	-9641
літься	-9642
▁гіпер	-9643
▁кампа	-9644
▁медза	-9645
▁модер	-9646
▁нації	-9647
▁паблі	-9648
▁пісню	-9649
льність	-9650
▁кабмін	-9651
▁випуска	-9652
▁спротив	-9653
найбільше	-9654
▁виходити	-9655
▁почалися	-9656
▁протести	-9657
▁тактичне	-9658
полтавська	-9659
▁залишився	-9660
▁остаточно	-9661
▁підтримці	-9662
▁утримують	-9663
▁енергодара	-9664
▁потерпілих	-9665
▁командувача	-9666
▁евакуюватися	-9667
▁користуватися	-9668
▁проголосували	-9669
▁транспортування	-9670
ung	-9671
дум	-9672
зію	-9673
чор	-9674
шок	-9675
▁4-	-9676
▁ян	-9677
:00,	-9678
лько	-9679
міра	-9680
тоно	-9681
щать	-9682
▁but	-9683
▁бід	-9684
▁сот	-9685
▁хак	-9686
▁хра	-9687
демон	-9688
джест	-9689
▁time	-9690
▁бити	-9691
▁гені	-9692
▁сена	-9693
▁фору	-9694
північ	-9695
увався	-9696
▁висто	-9697
▁краси	-9698
▁особу	-9699
▁певні	-9700
▁січні	-9701
близько	-9702
станцій	-9703
ячеслав	-9704
▁бачить	-9705
▁демора	-9706
▁зелено	-9707
▁ненави	-9708
▁пенсій	-9709
▁провід	-9710
▁селище	-9711
▁авіаком	-9712
▁аналогі	-9713
▁вугледа	-9714
▁закріпи	-9715
▁острова	-9716
▁перебої	-9717
▁письмен	-9718
▁полтава	-9719
▁померла	-9720
▁ударами	-9721
▁чергова	-9722
штурмової	-9723
▁загальну	-9724
▁конгресу	-9725
▁озброєнь	-9726
▁офіцерів	-9727
▁підтопле	-9728
▁світових	-9729
▁цивільне	-9730
▁запитання	-9731
▁масштабна	-9732
▁оборонної	-9733
▁перебував	-9734
▁вантажівки	-9735
▁енергодарі	-9736
▁пропаганду	-9737
▁зруйнований	-9738
▁бронетехніки	-9739
блю	-9740
дон	-9741
зія	-9742
-19,	-9743
авіа	-9744
бера	-9745
бруд	-9746
ленд	-9747
нове	-9748
феро	-9749
▁160	-9750
▁вмс	-9751
▁пси	-9752
банка	-9753
▁кафе	-9754
▁прям	-9755
▁тобі	-9756
▁їхнє	-9757
неться	-9758
▁корея	-9759
▁кореї	-9760
▁селах	-9761
▁серію	-9762
▁скорі	-9763
▁уніка	-9764
▁шкоди	-9765
▁ізюмі	-9766
▁shahed	-9767
▁африки	-9768
▁заводі	-9769
▁корабе	-9770
▁методи	-9771
▁острів	-9772
▁прізви	-9773
▁старух	-9774
▁друзями	-9775
▁знадоби	-9776
▁моменту	-9777
▁прибула	-9778
▁щеплень	-9779
▁іспанія	-9780
▁зниження	-9781
▁офіційне	-9782
▁перевагу	-9783
▁прибуття	-9784
▁пріорите	-9785
▁брянській	-9786
▁зберігати	-9787
▁передусім	-9788
▁протистоя	-9789
▁вантажівок	-9790
▁оперативне	-9791
▁продовжить	-9792
▁пропозицію	-9793
▁херсонському	-9794
▁🇱	-9795
24.	-9796
day	-9797
ese	-9798
ond	-9799
бід	-9800
тоб	-9801
▁51	-9802
▁6-	-9803
шить	-9804
▁sky	-9805
▁алі	-9806
▁цзі	-9807
вчора	-9808
нувся	-9809
▁заві	-9810
▁скоє	-9811
▁тетя	-9812
ковано	-9813
нувала	-9814
рорайо	-9815
▁акцію	-9816
▁канад	-9817
▁низка	-9818
▁приго	-9819
▁тепла	-9820
▁street	-9821
▁алкого	-9822
▁година	-9823
▁збитки	-9824
▁звідки	-9825
▁знищив	-9826
▁матиме	-9827
▁червні	-9828
▁веденні	-9829
▁визнати	-9830
▁геноцид	-9831
▁голосів	-9832
▁завдати	-9833
▁знищила	-9834
▁кривого	-9835
▁людмила	-9836
▁поразки	-9837
▁реєстру	-9838
▁столицю	-9839
▁терехов	-9840
▁зіткнень	-9841
▁критично	-9842
▁належать	-9843
▁пального	-9844
▁розвиток	-9845
▁іранські	-9846
▁аеродромі	-9847
▁західного	-9848
▁офіційний	-9849
▁світового	-9850
▁винищувача	-9851
▁залишиться	-9852
▁побратимів	-9853
▁пораненими	-9854
▁лисичанську	-9855
▁супутникові	-9856
▁травмованих	-9857
▁уповноважений	-9858
ve	-9859
уш	-9860
мбу	-9861
нию	-9862
ред	-9863
▁1-	-9864
▁77	-9865
▁ес	-9866
біло	-9867
ские	-9868
янка	-9869
▁апе	-9870
▁бле	-9871
▁вод	-9872
▁жар	-9873
▁чоп	-9874
вості	-9875
куємо	-9876
льоту	-9877
оміся	-9878
▁what	-9879
▁доки	-9880
▁пзрк	-9881
▁піро	-9882
кторів	-9883
москва	-9884
▁видав	-9885
▁заява	-9886
▁комиш	-9887
▁лавах	-9888
▁нашою	-9889
▁підри	-9890
▁пісто	-9891
▁рекві	-9892
▁єдина	-9893
комплек	-9894
▁ентоні	-9895
▁кроком	-9896
▁надала	-9897
▁розрах	-9898
▁хороші	-9899
▁партнер	-9900
▁свідомо	-9901
▁сімферо	-9902
▁купувати	-9903
▁прорвати	-9904
▁учасники	-9905
▁ефективно	-9906
▁олігархів	-9907
▁розпочала	-9908
▁енергоатом	-9909
▁вертольотів	-9910
▁луганському	-9911
▁телебачення	-9912
▁захворювання	-9913
▁міністерстві	-9914
▁забезпечувати	-9915
▁червоногригорів	-9916
ma	-9917
ple	-9918
гда	-9919
жий	-9920
▁іт	-9921
/131	-9922
edom	-9923
кали	-9924
поки	-9925
сків	-9926
▁170	-9927
▁hel	-9928
▁зао	-9929
▁юту	-9930
▁іта	-9931
валід	-9932
марке	-9933
перів	-9934
ствен	-9935
швілі	-9936
▁виба	-9937
▁вихо	-9938
▁воїн	-9939
▁диза	-9940
▁дизе	-9941
▁мані	-9942
▁моти	-9943
▁нади	-9944
▁антон	-9945
▁будет	-9946
▁мінре	-9947
▁охтир	-9948
▁цзінь	-9949
▁цілях	-9950
тобстрі	-9951
явилися	-9952
▁житель	-9953
▁зупини	-9954
▁купити	-9955
▁машину	-9956
▁неправ	-9957
▁вагонів	-9958
▁обласна	-9959
▁регіони	-9960
▁розуміє	-9961
▁фігуран	-9962
▁введення	-9963
▁впевнені	-9964
▁звірства	-9965
▁оборонці	-9966
▁прийняти	-9967
▁імовірно	-9968
▁інститут	-9969
▁азовсталі	-9970
▁допомагав	-9971
▁зрозуміло	-9972
▁північної	-9973
▁сполучені	-9974
▁януковича	-9975
▁відновлено	-9976
▁обстріляла	-9977
▁ймовірність	-9978
▁побратимами	-9979
▁евакуаційний	-9980
▁міжнародному	-9981
gr	-9982
gen	-9983
ide	-9984
але	-9985
ыва	-9986
▁тц	-9987
нкен	-9988
нуті	-9989
пить	-9990
стов	-9991
тєрі	-9992
▁16,	-9993
▁90%	-9994
▁ака	-9995
▁дай	-9996
▁зну	-9997
▁мір	-9998
▁шоу	-9999
бував	-10000
пенко	-10001
ятати	-10002
їхали	-10003
▁ауди	-10004
▁мерт	-10005
▁соро	-10006
гарячі	-10007
нутись	-10008
▁всюди	-10009
▁думає	-10010
▁мости	-10011
▁націо	-10012
▁незна	-10013
▁річку	-10014
▁спосо	-10015
▁бюджет	-10016
▁літера	-10017
▁молоді	-10018
▁проспе	-10019
▁статті	-10020
▁шахтар	-10021
очевидці	-10022
▁асамбле	-10023
▁жителям	-10024
▁запасів	-10025
▁перейти	-10026
▁резерву	-10027
▁власного	-10028
▁вогневий	-10029
▁дорослих	-10030
▁змагання	-10031
▁комишува	-10032
▁минулося	-10033
▁мінцифри	-10034
▁окупацію	-10035
▁артобстрі	-10036
▁мікрорайо	-10037
▁необхідне	-10038
▁політиків	-10039
▁порятунку	-10040
▁радіолока	-10041
▁юридичних	-10042
▁колаборант	-10043
▁національна	-10044
▁підтверджено	-10045
▁стратегічної	-10046
88	-10047
!»,	-10048
-24	-10049
тяж	-10050
▁do	-10051
▁no	-10052
гати	-10053
щого	-10054
▁15-	-10055
▁тен	-10056
байду	-10057
щують	-10058
▁(+4)	-10059
▁2024	-10060
▁wall	-10061
▁геть	-10062
▁духу	-10063
▁попи	-10064
▁фрак	-10065
▁чисе	-10066
вський	-10067
▁вибір	-10068
▁двигу	-10069
▁замін	-10070
▁подру	-10071
▁солом	-10072
▁текст	-10073
квально	-10074
▁кожним	-10075
▁писати	-10076
▁почати	-10077
▁чекати	-10078
▁бахмуту	-10079
▁запевня	-10080
▁михайла	-10081
▁остаточ	-10082
▁програм	-10083
▁репорта	-10084
▁єдність	-10085
черкаська	-10086
▁брюсселі	-10087
▁закликаю	-10088
▁магазини	-10089
▁оленівці	-10090
▁приймати	-10091
▁оголосити	-10092
▁потенціал	-10093
▁відзначені	-10094
▁генератори	-10095
▁нацгвардій	-10096
▁цілісність	-10097
▁нафтопродук	-10098
▁солідарності	-10099
▁співпрацювати	-10100
▁справедливість	-10101
9)	-10102
моз	-10103
тіс	-10104
шню	-10105
reon	-10106
бати	-10107
гель	-10108
зила	-10109
пози	-10110
тром	-10111
їнки	-10112
▁акт	-10113
▁джи	-10114
▁хлі	-10115
обере	-10116
овець	-10117
спрям	-10118
▁гімн	-10119
▁дона	-10120
▁лубі	-10121
▁мара	-10122
▁поче	-10123
▁сльо	-10124
▁філі	-10125
▁вважаю	-10126
▁донати	-10127
▁заслуг	-10128
▁знаєте	-10129
▁новина	-10130
▁сектор	-10131
▁ударом	-10132
▁щоміся	-10133
▁важливе	-10134
▁затриму	-10135
▁зробила	-10136
▁контент	-10137
▁показує	-10138
▁реально	-10139
▁релігій	-10140
▁сталось	-10141
▁станція	-10142
▁сумщини	-10143
▁переслід	-10144
▁публічні	-10145
▁статисти	-10146
▁дальності	-10147
▁здійснено	-10148
▁азовського	-10149
▁журналіста	-10150
▁північного	-10151
▁повітряному	-10152
▁спеціальний	-10153
▁деокупованих	-10154
▁організувати	-10155
▁підписуйтесь	-10156
▁застосовувати	-10157
▁спостереження	-10158
▁електростанції	-10159
▁використовували	-10160
лл	-10161
400	-10162
ces	-10163
ign	-10164
out	-10165
ака	-10166
вай	-10167
лес	-10168
лнр	-10169
міт	-10170
офі	-10171
cial	-10172
ound	-10173
коро	-10174
регу	-10175
сени	-10176
спро	-10177
▁can	-10178
▁єка	-10179
▁іще	-10180
коруп	-10181
▁виго	-10182
▁горо	-10183
▁звіт	-10184
▁пару	-10185
▁тему	-10186
▁фейк	-10187
білору	-10188
мперед	-10189
▁гаазі	-10190
няються	-10191
▁налаго	-10192
▁обіцяє	-10193
▁пошуку	-10194
▁призем	-10195
▁розбло	-10196
▁соловй	-10197
▁спорту	-10198
▁телеве	-10199
▁євгена	-10200
▁freedom	-10201
▁блінкен	-10202
▁важливу	-10203
▁входять	-10204
▁ракетну	-10205
▁складні	-10206
▁інвалід	-10207
тернопіль	-10208
▁диктатор	-10209
▁забудемо	-10210
▁займання	-10211
▁наближає	-10212
▁написала	-10213
▁олігарха	-10214
▁попереду	-10215
▁пошуково	-10216
▁євросоюз	-10217
▁азербайдж	-10218
▁залізниці	-10219
▁українсько	-10220
▁стверджують	-10221
▁громадянство	-10222
▁комендантської	-10223
▁адміністративні	-10224
.)	-10225
ал	-10226
ine	-10227
mer	-10228
дую	-10229
▁so	-10230
нуто	-10231
пова	-10232
▁12-	-10233
▁180	-10234
▁80%	-10235
▁гля	-10236
▁зли	-10237
▁мая	-10238
бурзі	-10239
верен	-10240
проти	-10241
▁100%	-10242
▁only	-10243
▁воли	-10244
▁орки	-10245
▁штра	-10246
покров	-10247
членів	-10248
▁водій	-10249
▁зняти	-10250
▁непов	-10251
▁поміч	-10252
няється	-10253
▁аварії	-10254
▁держде	-10255
▁насиль	-10256
▁стамбу	-10257
▁японія	-10258
▁війську	-10259
▁дитячий	-10260
▁захисті	-10261
▁медичні	-10262
▁пройшла	-10263
▁складна	-10264
instagram	-10265
▁анатолій	-10266
▁показала	-10267
кіровоград	-10268
▁буквально	-10269
▁газопрово	-10270
▁обстрілом	-10271
▁партнерам	-10272
▁продовжив	-10273
вагнерівців	-10274
▁влаштували	-10275
▁передавати	-10276
▁міжнародним	-10277
▁рашистських	-10278
▁переселенців	-10279
▁рятувальників	-10280
52	-10281
зло	-10282
зюк	-10283
мат	-10284
рий	-10285
рср	-10286
дуже	-10287
▁лай	-10288
iegel	-10289
суддя	-10290
▁вики	-10291
▁вугі	-10292
▁джан	-10293
▁заст	-10294
▁колі	-10295
▁лист	-10296
▁мама	-10297
дового	-10298
перемо	-10299
торами	-10300
▁chall	-10301
▁брази	-10302
▁думки	-10303
▁збити	-10304
▁крива	-10305
▁марку	-10306
▁місте	-10307
▁после	-10308
▁пуска	-10309
▁судді	-10310
▁тайва	-10311
▁хвиля	-10312
▁будапе	-10313
▁вдячні	-10314
▁житоми	-10315
▁набира	-10316
▁подати	-10317
-136/131	-10318
▁безуспі	-10319
▁прапори	-10320
▁справах	-10321
▁темпера	-10322
російська	-10323
▁висловив	-10324
▁зауважив	-10325
▁приїхали	-10326
▁австралії	-10327
▁агентство	-10328
▁економіку	-10329
▁захисника	-10330
▁мобільний	-10331
▁остаточні	-10332
▁партизани	-10333
▁цілеспрям	-10334
▁демілітари	-10335
▁операторів	-10336
▁пошкоджена	-10337
▁чиновників	-10338
▁прокуратури	-10339
▁громадянства	-10340
▁прикордонної	-10341
▁відмовляється	-10342
▁спецпризначен	-10343
1/	-10344
10)	-10345
жем	-10346
▁хв	-10347
▁гон	-10348
▁ред	-10349
жовта	-10350
ківка	-10351
ляння	-10352
мають	-10353
▁mail	-10354
▁взво	-10355
▁діли	-10356
▁жозе	-10357
▁олаф	-10358
▁срср	-10359
▁усій	-10360
▁фікс	-10361
▁бучан	-10362
▁докла	-10363
▁крити	-10364
▁невда	-10365
▁одесу	-10366
▁підій	-10367
▁селищ	-10368
▁хвилі	-10369
▁шести	-10370
▁коваль	-10371
▁нанесе	-10372
▁нікому	-10373
▁резерв	-10374
▁розмов	-10375
▁активіз	-10376
▁верхньо	-10377
▁виродки	-10378
▁затопле	-10379
▁званого	-10380
▁підсанк	-10381
▁єдності	-10382
▁говорили	-10383
▁лубінець	-10384
▁половина	-10385
▁виведення	-10386
▁крилатими	-10387
▁лукашенка	-10388
▁матеріалі	-10389
▁персоналу	-10390
▁показують	-10391
▁зеленодоль	-10392
▁пропаганда	-10393
▁громадянина	-10394
▁протистояння	-10395
.,	-10396
cy	-10397
ere	-10398
ана	-10399
зли	-10400
ная	-10401
нею	-10402
▁83	-10403
▁la	-10404
▁se	-10405
atch	-10406
дячи	-10407
ерії	-10408
золо	-10409
міна	-10410
піхо	-10411
шіть	-10412
▁ада	-10413
▁вез	-10414
▁чиї	-10415
▁їжу	-10416
садов	-10417
▁ліку	-10418
▁ніяк	-10419
▁поме	-10420
▁семе	-10421
носити	-10422
тичним	-10423
читись	-10424
чність	-10425
▁богда	-10426
▁вирок	-10427
▁гурту	-10428
▁знизи	-10429
▁психі	-10430
▁русню	-10431
▁страш	-10432
▁типів	-10433
ального	-10434
▁ближче	-10435
▁вулицю	-10436
▁відсте	-10437
▁джонсо	-10438
▁додала	-10439
▁посаді	-10440
ховувати	-10441
▁витрима	-10442
▁дивізії	-10443
▁експлуа	-10444
▁невизна	-10445
вінницька	-10446
демонстру	-10447
▁депутата	-10448
▁нададуть	-10449
▁програма	-10450
▁прямують	-10451
▁трагедії	-10452
▁шириться	-10453
▁високоточ	-10454
▁гостомель	-10455
▁обласного	-10456
▁перетворю	-10457
▁понеділок	-10458
▁розпочина	-10459
▁цивільній	-10460
▁домовилися	-10461
▁посадовців	-10462
▁англійською	-10463
▁прикордонні	-10464
▁безкоштовний	-10465
▁організатори	-10466
▁суверенітету	-10467
▁повідомленням	-10468
▁працюватимуть	-10469
▁мінреінтеграції	-10470
▁шевченківському	-10471
rk	-10472
бок	-10473
кає	-10474
нас	-10475
ней	-10476
рте	-10477
єво	-10478
▁ск	-10479
лети	-10480
▁11-	-10481
▁350	-10482
▁імп	-10483
2023.	-10484
▁vict	-10485
▁бомб	-10486
▁ліки	-10487
▁найс	-10488
▁норм	-10489
носять	-10490
▁(+1),	-10491
▁побою	-10492
▁приєм	-10493
▁пізно	-10494
▁решта	-10495
▁самий	-10496
▁тарас	-10497
сумська	-10498
▁анджей	-10499
▁архіте	-10500
▁бачать	-10501
▁відбої	-10502
▁значну	-10503
▁квадра	-10504
▁летять	-10505
▁нічної	-10506
▁планом	-10507
▁сальдо	-10508
▁степан	-10509
▁турець	-10510
кладніше	-10511
▁відмову	-10512
▁конфлік	-10513
▁молдова	-10514
▁повнова	-10515
▁розподі	-10516
▁створив	-10517
німеччина	-10518
розвідува	-10519
▁ексклюзи	-10520
▁масового	-10521
▁перейшли	-10522
▁потужних	-10523
▁простору	-10524
▁росіянин	-10525
▁святогір	-10526
▁завершили	-10527
▁мобільних	-10528
▁наявність	-10529
▁розглядає	-10530
▁створюють	-10531
▁тактичної	-10532
▁навчальних	-10533
▁працюватиме	-10534
47	-10535
te	-10536
air	-10537
ose	-10538
гує	-10539
ену	-10540
щим	-10541
обла	-10542
сної	-10543
торо	-10544
щена	-10545
▁occ	-10546
▁уль	-10547
казав	-10548
леної	-10549
надій	-10550
торія	-10551
чніше	-10552
івано	-10553
▁вису	-10554
▁граж	-10555
▁марк	-10556
▁осна	-10557
чаться	-10558
янське	-10559
▁гурто	-10560
▁набра	-10561
▁оформ	-10562
▁якось	-10563
▁serhii	-10564
▁анонім	-10565
▁героїз	-10566
▁званий	-10567
▁огляду	-10568
▁палати	-10569
▁підвод	-10570
▁підліт	-10571
▁сейчас	-10572
▁серпні	-10573
▁спікер	-10574
кроборон	-10575
▁великою	-10576
▁вугілля	-10577
▁доповід	-10578
▁енергії	-10579
▁небайду	-10580
▁польоту	-10581
▁приводу	-10582
▁складах	-10583
▁тактику	-10584
▁броварах	-10585
▁вишгород	-10586
▁відкрити	-10587
▁говорять	-10588
▁закликом	-10589
▁додаткову	-10590
▁запланова	-10591
▁найгарячі	-10592
▁розповіли	-10593
▁ставлення	-10594
▁військкома	-10595
▁долучитися	-10596
▁львівської	-10597
▁місцевості	-10598
▁вчорашнього	-10599
▁закінчиться	-10600
▁запровадили	-10601
▁продемонстру	-10602
▁військовослужб	-10603
68	-10604
хт	-10605
ely	-10606
жок	-10607
льт	-10608
цар	-10609
чій	-10610
▁dw	-10611
▁ай	-10612
▁хи	-10613
▁дох	-10614
▁оос	-10615
▁пої	-10616
▁сви	-10617
▁сма	-10618
🇺🇦🇺🇦	-10619
еваку	-10620
ненню	-10621
рного	-10622
стого	-10623
▁домі	-10624
▁крей	-10625
▁мате	-10626
▁поря	-10627
▁стат	-10628
▁юлія	-10629
неного	-10630
▁there	-10631
▁купів	-10632
▁кірбі	-10633
▁ліцен	-10634
▁укрпо	-10635
▁шукає	-10636
бавовна	-10637
▁батько	-10638
▁виборю	-10639
▁визнає	-10640
▁геніче	-10641
▁голові	-10642
▁дорозі	-10643
▁маніпу	-10644
▁романа	-10645
▁рубежі	-10646
▁ударні	-10647
▁якийсь	-10648
▁ініцію	-10649
▁берліні	-10650
▁досягли	-10651
▁корпусу	-10652
▁петицію	-10653
▁погрози	-10654
▁цзіньпі	-10655
▁гіперзву	-10656
▁диверсан	-10657
▁зменшити	-10658
▁матеріал	-10659
▁місцевий	-10660
▁пообіцяв	-10661
▁шевченка	-10662
▁італійсь	-10663
▁виконують	-10664
▁відправив	-10665
▁доставили	-10666
▁метрополі	-10667
▁наступних	-10668
▁олімпійсь	-10669
▁платформи	-10670
▁покоління	-10671
▁рубіжного	-10672
▁снарядами	-10673
української	-10674
▁демократії	-10675
▁дипломатії	-10676
▁досягнення	-10677
▁здійснення	-10678
▁насамперед	-10679
▁словаччина	-10680
чернігівська	-10681
▁авіаційного	-10682
▁артилеристи	-10683
▁контролюють	-10684
▁патріархату	-10685
▁суспільство	-10686
▁опублікували	-10687
▁курахівському	-10688
64	-10689
go	-10690
-35	-10691
ark	-10692
ley	-10693
дво	-10694
▁71	-10695
▁аф	-10696
брів	-10697
грів	-10698
лоні	-10699
нуло	-10700
стих	-10701
чала	-10702
▁108	-10703
▁220	-10704
▁моє	-10705
▁уби	-10706
весні	-10707
▁поту	-10708
▁схва	-10709
▁акція	-10710
▁буває	-10711
▁вірте	-10712
▁диску	-10713
▁дорож	-10714
▁мереж	-10715
▁схова	-10716
одеська	-10717
суспіль	-10718
▁забува	-10719
▁очікує	-10720
▁роками	-10721
▁чинити	-10722
новлення	-10723
транспор	-10724
▁варшаві	-10725
▁вступив	-10726
▁зрадник	-10727
▁майстер	-10728
▁нападів	-10729
▁уражено	-10730
▁запевнив	-10731
▁засудили	-10732
▁клименко	-10733
▁очікують	-10734
▁переправ	-10735
▁ухвалили	-10736
▁антикоруп	-10737
▁геноцидом	-10738
▁мінування	-10739
▁нанесення	-10740
▁правління	-10741
▁призначив	-10742
▁припинила	-10743
▁ранковому	-10744
▁територія	-10745
▁федерація	-10746
▁викрадення	-10747
▁відповідне	-10748
▁застосовує	-10749
▁необхідних	-10750
▁правосуддя	-10751
▁цілісності	-10752
▁благодійний	-10753
▁генпрокурор	-10754
▁присутність	-10755
▁проходження	-10756
▁залізничного	-10757
▁повертається	-10758
▁використанням	-10759
▁американського	-10760
gy	-10761
oy	-10762
oz	-10763
мы	-10764
▁x	-10765
-95	-10766
все	-10767
гні	-10768
джі	-10769
кса	-10770
теа	-10771
rams	-10772
нком	-10773
ружи	-10774
чеви	-10775
чене	-10776
▁ole	-10777
▁вин	-10778
▁уся	-10779
▁іст	-10780
nenko	-10781
скона	-10782
▁116,	-10783
▁2018	-10784
▁торг	-10785
нового	-10786
підемі	-10787
ходили	-10788
▁звіті	-10789
▁моста	-10790
▁найпо	-10791
▁обсте	-10792
▁ознак	-10793
▁оккуп	-10794
▁опита	-10795
▁парку	-10796
▁розро	-10797
▁рідні	-10798
▁свята	-10799
▁синьо	-10800
▁суддя	-10801
▁антоні	-10802
▁бачите	-10803
▁відріз	-10804
▁зробле	-10805
▁пройде	-10806
▁армійсь	-10807
▁депорту	-10808
▁деталей	-10809
▁народом	-10810
▁рестора	-10811
▁сприяти	-10812
▁відпрацю	-10813
▁моравець	-10814
▁арестович	-10815
▁виділення	-10816
▁організов	-10817
▁подробиці	-10818
▁починають	-10819
український	-10820
▁кропивниць	-10821
▁понівечені	-10822
▁реагування	-10823
▁намагаючись	-10824
▁починається	-10825
▁суспільному	-10826
▁європейська	-10827
▁домовленості	-10828
▁звинувачують	-10829
кіровоградська	-10830
▁енергосистемі	-10831
65	-10832
ne	-10833
ack	-10834
ics	-10835
льд	-10836
тчи	-10837
хав	-10838
яка	-10839
▁оа	-10840
lish	-10841
tele	-10842
дено	-10843
стив	-10844
ґрун	-10845
▁трь	-10846
говір	-10847
довго	-10848
ляйте	-10849
поряд	-10850
чував	-10851
шахід	-10852
шуємо	-10853
▁вірю	-10854
▁шебе	-10855
▁єпар	-10856
▁occup	-10857
▁держз	-10858
▁комер	-10859
▁мангу	-10860
▁наста	-10861
▁посту	-10862
чується	-10863
▁виріша	-10864
▁додали	-10865
▁робили	-10866
▁чекали	-10867
▁вересні	-10868
▁залишки	-10869
▁змусити	-10870
▁локації	-10871
▁розмова	-10872
▁теракту	-10873
▁хлопців	-10874
▁виступає	-10875
▁гарантій	-10876
▁збройним	-10877
▁рішенням	-10878
▁серйозно	-10879
▁сприяння	-10880
▁установи	-10881
▁винищувач	-10882
▁миколаєву	-10883
▁міністром	-10884
▁перемовин	-10885
▁залишатися	-10886
▁застосував	-10887
▁журналістам	-10888
▁кримінальне	-10889
▁проводиться	-10890
▁багатоповерх	-10891
▁миколаївщина	-10892
▁національний	-10893
▁укрзалізниці	-10894
▁центрального	-10895
▁безпілотниками	-10896
▁!	-10897
ble	-10898
біг	-10899
ерв	-10900
ріб	-10901
тик	-10902
▁кп	-10903
ense	-10904
дове	-10905
крим	-10906
куди	-10907
пост	-10908
єнко	-10909
▁900	-10910
▁агі	-10911
▁пау	-10912
▁сон	-10913
-2022	-10914
гують	-10915
стеро	-10916
▁геор	-10917
▁заці	-10918
▁набо	-10919
▁сине	-10920
▁цині	-10921
велика	-10922
лятися	-10923
розумі	-10924
шньому	-10925
▁госпі	-10926
▁надав	-10927
▁обсяг	-10928
▁темря	-10929
продовж	-10930
▁abrams	-10931
▁берега	-10932
▁вбивць	-10933
▁вдарив	-10934
▁впрова	-10935
▁депорт	-10936
▁жовтні	-10937
▁замови	-10938
▁зарпла	-10939
▁машина	-10940
▁практи	-10941
▁хворих	-10942
підприєм	-10943
▁spiegel	-10944
▁відкрив	-10945
▁графіки	-10946
▁ділянці	-10947
▁збирали	-10948
▁країнам	-10949
▁сторону	-10950
▁загиблий	-10951
▁переліку	-10952
▁українця	-10953
підрозділи	-10954
▁відеозвер	-10955
▁госпіталі	-10956
▁пригожина	-10957
▁прилетіло	-10958
▁прігожина	-10959
▁свідчення	-10960
▁керівників	-10961
▁промислові	-10962
▁підсумками	-10963
▁соціальної	-10964
▁застосували	-10965
▁телемаратону	-10966
▁зареєстровано	-10967
▁проросійських	-10968
-7	-10969
ial	-10970
год	-10971
іда	-10972
▁62	-10973
▁ов	-10974
біть	-10975
літь	-10976
шньо	-10977
▁2,5	-10978
▁411	-10979
▁елі	-10980
▁скі	-10981
літку	-10982
ненка	-10983
ніших	-10984
▁арсе	-10985
▁бабу	-10986
▁ганд	-10987
▁гурт	-10988
▁доно	-10989
▁етап	-10990
▁мети	-10991
▁секу	-10992
▁count	-10993
▁вінчі	-10994
▁місію	-10995
▁напис	-10996
▁нехту	-10997
▁обира	-10998
▁орків	-10999
▁полог	-11000
▁усієї	-11001
▁їхати	-11002
▁більшу	-11003
▁відомі	-11004
▁капіта	-11005
▁кожної	-11006
▁мужньо	-11007
▁наталя	-11008
▁новоми	-11009
▁ризики	-11010
▁челове	-11011
суватися	-11012
▁безпека	-11013
▁визнали	-11014
▁голодом	-11015
▁каховки	-11016
▁мавіків	-11017
▁починає	-11018
▁тиснути	-11019
▁футболу	-11020
▁хвилину	-11021
▁доставки	-11022
▁століття	-11023
stoprussia	-11024
▁врятовано	-11025
▁відбудову	-11026
▁дозволити	-11027
▁документа	-11028
▁зміцнення	-11029
▁омбудсмен	-11030
▁прийняття	-11031
▁розуміння	-11032
▁спецслужб	-11033
▁українець	-11034
▁challenger	-11035
▁київському	-11036
▁приєднання	-11037
▁соціальних	-11038
▁венедіктова	-11039
▁добровільно	-11040
▁реінтеграції	-11041
93	-11042
гур	-11043
дор	-11044
руд	-11045
ріс	-11046
топ	-11047
▁ii	-11048
news	-11049
ерго	-11050
жува	-11051
непо	-11052
шина	-11053
▁125	-11054
▁17-	-11055
▁пон	-11056
люємо	-11057
понад	-11058
якому	-11059
▁(+7)	-11060
▁2016	-11061
▁внес	-11062
▁маке	-11063
▁помо	-11064
▁рота	-11065
▁ріші	-11066
▁стро	-11067
▁твер	-11068
ancial	-11069
▁today	-11070
▁гарно	-11071
▁живій	-11072
▁зароб	-11073
▁нарко	-11074
▁облік	-11075
▁потік	-11076
▁уночі	-11077
▁вдвічі	-11078
▁вороне	-11079
▁дениса	-11080
▁зменши	-11081
▁зібрав	-11082
▁мініма	-11083
▁оріхів	-11084
▁першою	-11085
▁руслан	-11086
▁такому	-11087
▁тисячу	-11088
джується	-11089
▁бельгії	-11090
▁викрили	-11091
▁договір	-11092
▁закрили	-11093
▁заплати	-11094
▁зенітні	-11095
▁змусили	-11096
▁провали	-11097
▁створює	-11098
▁богороди	-11099
▁медзакла	-11100
▁механізм	-11101
▁прийняли	-11102
▁тримання	-11103
▁уламками	-11104
▁відбувати	-11105
▁міськради	-11106
▁південної	-11107
▁інтересах	-11108
▁верхньокам	-11109
▁відправила	-11110
▁нацбезпеки	-11111
▁політичних	-11112
▁мобілізація	-11113
▁артилерійський	-11114
▁правоохоронців	-11115
kop	-11116
ral	-11117
сар	-11118
чко	-11119
влас	-11120
мени	-11121
поді	-11122
фото	-11123
єдну	-11124
▁впс	-11125
волин	-11126
никах	-11127
нслуж	-11128
тивне	-11129
ченню	-11130
▁азії	-11131
▁втру	-11132
компле	-11133
▁вигна	-11134
▁деніс	-11135
▁деста	-11136
▁жоден	-11137
▁музею	-11138
▁підсу	-11139
▁самих	-11140
▁танка	-11141
▁ізюма	-11142
йтенант	-11143
ованому	-11144
фікації	-11145
▁греції	-11146
▁громов	-11147
▁змогла	-11148
▁нищити	-11149
▁охорон	-11150
▁поведі	-11151
▁регіон	-11152
▁склика	-11153
▁включає	-11154
▁каналів	-11155
▁навесні	-11156
▁пришвид	-11157
▁провела	-11158
▁терміни	-11159
▁тяжкому	-11160
▁ядерних	-11161
▁єкатєрі	-11162
▁ілюстра	-11163
▁інциден	-11164
▁альтерна	-11165
▁болгарія	-11166
▁відійшли	-11167
▁дискреди	-11168
▁завдавав	-11169
▁закарпат	-11170
▁змушують	-11171
▁зустріча	-11172
▁телефони	-11173
▁агентства	-11174
▁зрадників	-11175
▁казахстан	-11176
▁приховати	-11177
▁середньої	-11178
▁системами	-11179
▁наголосила	-11180
▁приєднався	-11181
▁реалізації	-11182
▁скасування	-11183
▁заступником	-11184
▁перекидання	-11185
▁полтавській	-11186
▁приєднатися	-11187
▁результатів	-11188
▁продовольства	-11189
▁прикордонників	-11190
":	-11191
):	-11192
/+	-11193
85	-11194
тп	-11195
411	-11196
всі	-11197
нно	-11198
оле	-11199
усі	-11200
хах	-11201
ated	-11202
reak	-11203
жали	-11204
пору	-11205
пред	-11206
▁50%	-11207
▁ind	-11208
▁аку	-11209
▁ввп	-11210
▁око	-11211
▁стр	-11212
грома	-11213
злочи	-11214
▁аніж	-11215
▁джей	-11216
▁опор	-11217
▁руку	-11218
▁стяг	-11219
▁тими	-11220
бахмут	-11221
кономі	-11222
▁06.00	-11223
▁fight	-11224
▁акаун	-11225
▁зворо	-11226
▁подав	-11227
▁сезон	-11228
▁формі	-11229
english	-11230
доскона	-11231
зується	-11232
▁defend	-11233
▁блекау	-11234
▁збирав	-11235
▁сезону	-11236
▁школах	-11237
поверхів	-11238
▁бригаду	-11239
▁бригаді	-11240
▁визнала	-11241
▁вимогою	-11242
▁входить	-11243
▁дарниць	-11244
▁значить	-11245
▁лікарів	-11246
▁нагадує	-11247
▁популяр	-11248
▁рідними	-11249
▁дивитись	-11250
▁енергоно	-11251
▁знищений	-11252
▁лікарнях	-11253
▁матимуть	-11254
▁найкращі	-11255
▁останнім	-11256
▁світовий	-11257
▁суттєвих	-11258
енергоатом	-11259
рятувальні	-11260
▁делегації	-11261
▁звільнені	-11262
▁лаборатор	-11263
▁покровськ	-11264
▁соцмережі	-11265
▁існування	-11266
▁вакцинації	-11267
▁поводження	-11268
▁поширювати	-11269
▁розширення	-11270
▁рятувальні	-11271
▁санкційний	-11272
▁традиційно	-11273
миколаївська	-11274
▁застосувати	-11275
▁колаборанта	-11276
▁представника	-11277
▁артилерійського	-11278
31	-11279
li	-11280
pt	-11281
нич	-11282
хва	-11283
чою	-11284
шій	-11285
▁ты	-11286
avel	-11287
жила	-11288
паки	-11289
пило	-11290
шлях	-11291
єрка	-11292
▁ато	-11293
▁вро	-11294
▁кие	-11295
▁сов	-11296
▁сєн	-11297
бівка	-11298
масти	-11299
тинен	-11300
▁(+5)	-11301
▁анна	-11302
▁мілі	-11303
▁похи	-11304
▁узго	-11305
наймні	-11306
товані	-11307
▁відмі	-11308
▁підда	-11309
▁тричі	-11310
▁цілий	-11311
▁чтобы	-11312
баченні	-11313
явилось	-11314
▁ветера	-11315
▁вечора	-11316
▁влітку	-11317
▁загоря	-11318
▁зайшли	-11319
▁закріп	-11320
▁зосере	-11321
▁нікого	-11322
▁погано	-11323
▁теракт	-11324
▁тікати	-11325
▁єпархі	-11326
▁віддати	-11327
▁радбезу	-11328
▁хоробри	-11329
▁центрів	-11330
▁шестеро	-11331
▁бореться	-11332
▁борються	-11333
▁вільнюсі	-11334
▁попросив	-11335
▁рятувати	-11336
▁танкової	-11337
кордонслуж	-11338
▁відвідати	-11339
▁костянтин	-11340
▁медведчук	-11341
▁постачаль	-11342
▁інтернету	-11343
спецтехніка	-11344
▁військовою	-11345
▁зображення	-11346
▁командирів	-11347
▁нацполіція	-11348
▁попереджає	-11349
▁пропозиції	-11350
▁цілодобово	-11351
▁черкаській	-11352
▁ініціатива	-11353
▁заблокували	-11354
▁обговорення	-11355
▁повідомляли	-11356
▁спорядження	-11357
▁відновлювати	-11358
39	-11359
ca	-11360
uz	-11361
.06	-11362
bes	-11363
рік	-11364
цез	-11365
▁$2	-11366
▁(5	-11367
▁tv	-11368
віти	-11369
граб	-11370
дану	-11371
кори	-11372
таки	-11373
хоро	-11374
▁22:	-11375
▁бур	-11376
▁ван	-11377
▁▪️«	-11378
ident	-11379
мента	-11380
міжна	-11381
▁iris	-11382
▁всех	-11383
▁окса	-11384
ведені	-11385
нської	-11386
стовір	-11387
▁блоку	-11388
▁вцілі	-11389
▁глиби	-11390
▁підля	-11391
▁пілот	-11392
▁пісні	-11393
▁серія	-11394
▁іноді	-11395
▁значна	-11396
▁короле	-11397
▁лимані	-11398
▁премії	-11399
▁сербії	-11400
▁варіант	-11401
▁головна	-11402
▁гуртожи	-11403
▁повторю	-11404
▁спільні	-11405
▁частіше	-11406
▁коаліції	-11407
▁коментує	-11408
▁лівобере	-11409
▁сучасних	-11410
▁телефону	-11411
▁інцидент	-11412
▁довгостро	-11413
▁допомогли	-11414
▁здійснила	-11415
▁командува	-11416
▁чиновники	-11417
▁штурмових	-11418
▁бруднодупі	-11419
▁полтавщині	-11420
▁призначили	-11421
▁угруповань	-11422
▁економічної	-11423
▁зафіксовані	-11424
▁переглянути	-11425
прикордонслуж	-11426
▁зруйнованого	-11427
▁територіальну	-11428
▁сьогоднішнього	-11429
зей	-11430
ясо	-11431
▁3,	-11432
▁61	-11433
▁84	-11434
▁яс	-11435
▁⤵️	-11436
доро	-11437
казу	-11438
обов	-11439
пами	-11440
щень	-11441
ґвал	-11442
▁16-	-11443
▁алє	-11444
▁грі	-11445
▁дей	-11446
▁пле	-11447
овича	-11448
урага	-11449
▁9:00	-11450
▁скрі	-11451
рештою	-11452
▁гарні	-11453
▁квалі	-11454
▁мігра	-11455
▁нижче	-11456
▁одужа	-11457
▁остін	-11458
▁покуп	-11459
▁слове	-11460
▁шарія	-11461
інформу	-11462
▁вашого	-11463
▁видачі	-11464
▁вимоги	-11465
▁зазнає	-11466
▁несуть	-11467
▁служив	-11468
▁улюбле	-11469
▁фосфор	-11470
▁ірпеня	-11471
▁support	-11472
▁бачення	-11473
▁информа	-11474
▁квартир	-11475
▁коротко	-11476
▁москвою	-11477
▁поліцію	-11478
▁поспіль	-11479
▁пропону	-11480
▁рубежах	-11481
▁чергове	-11482
▁виконати	-11483
▁внесення	-11484
▁обставин	-11485
▁опалення	-11486
▁попасної	-11487
▁резервів	-11488
▁сирський	-11489
▁структур	-11490
▁financial	-11491
▁курсувати	-11492
▁медичного	-11493
▁монобанка	-11494
▁надається	-11495
▁скасували	-11496
хмельницька	-11497
▁ukrainians	-11498
▁кримського	-11499
▁нацгвардія	-11500
▁обговорити	-11501
▁заблокувала	-11502
▁зеленському	-11503
▁рашистський	-11504
▁метрополітен	-11505
▁бєлгородської	-11506
▁співробітництва	-11507
вже	-11508
ндр	-11509
ным	-11510
▁92	-11511
▁me	-11512
▁уп	-11513
opom	-11514
вест	-11515
жене	-11516
люди	-11517
▁40%	-11518
▁вир	-11519
зелен	-11520
ктори	-11521
шенні	-11522
▁шанс	-11523
▁ігра	-11524
german	-11525
operat	-11526
ництві	-11527
ритори	-11528
ятницю	-11529
▁stern	-11530
▁другу	-11531
▁заспо	-11532
▁негай	-11533
▁орбан	-11534
▁орлов	-11535
▁татар	-11536
▁вийшла	-11537
▁вийшло	-11538
▁владою	-11539
▁вороги	-11540
▁вчасно	-11541
▁долина	-11542
▁допомі	-11543
▁немину	-11544
▁офіцер	-11545
▁презен	-11546
▁прогре	-11547
▁родина	-11548
▁россий	-11549
▁скадов	-11550
▁хвилею	-11551
результа	-11552
▁апарати	-11553
▁бавовна	-11554
▁виробни	-11555
▁влучань	-11556
▁відділу	-11557
▁відразу	-11558
▁головні	-11559
▁дозволу	-11560
▁дружини	-11561
▁навчань	-11562
▁неповно	-11563
▁охорону	-11564
▁реакція	-11565
▁тайваню	-11566
▁хвилини	-11567
терористи	-11568
▁довелося	-11569
▁діліться	-11570
▁катерина	-11571
▁наслідок	-11572
▁чинності	-11573
▁владислав	-11574
▁гранатоме	-11575
▁дальність	-11576
▁домовлено	-11577
▁конвенції	-11578
▁обставини	-11579
▁закупівель	-11580
▁неймовірні	-11581
▁технології	-11582
▁відповідних	-11583
▁евакуаційні	-11584
▁моравецький	-11585
▁радянського	-11586
краматорський	-11587
▁підтверджують	-11588
71	-11589
92	-11590
pe	-11591
po	-11592
тг	-11593
▁🤝	-11594
300	-11595
met	-11596
rov	-11597
ure	-11598
віз	-11599
гіє	-11600
жай	-11601
змі	-11602
шнє	-11603
▁af	-11604
▁йо	-11605
▁🇪🇺	-11606
ката	-11607
телі	-11608
шнім	-11609
▁man	-11610
▁дан	-11611
▁лнр	-11612
▁ори	-11613
▁пцу	-11614
▁хро	-11615
керів	-11616
хають	-11617
▁life	-11618
▁дозу	-11619
▁стоя	-11620
▁твор	-11621
рівнен	-11622
▁вибор	-11623
▁видат	-11624
▁допис	-11625
▁жозеп	-11626
▁музей	-11627
▁рахів	-11628
▁сунак	-11629
проголо	-11630
рування	-11631
▁больше	-11632
▁втекти	-11633
▁давати	-11634
▁знищує	-11635
▁сирени	-11636
▁агресія	-11637
▁боїться	-11638
▁застави	-11639
▁маршрут	-11640
▁опалюва	-11641
▁публіка	-11642
▁реаніма	-11643
▁скинули	-11644
▁страшно	-11645
▁сховища	-11646
▁варіанти	-11647
▁відстань	-11648
▁денісова	-11649
▁наземних	-11650
▁почалася	-11651
▁проблема	-11652
▁тероборо	-11653
▁антипенко	-11654
▁диктатора	-11655
▁ескалації	-11656
▁залучення	-11657
▁летальних	-11658
▁принаймні	-11659
▁революції	-11660
▁росіянина	-11661
▁телеграмі	-11662
▁демонструє	-11663
▁заборонила	-11664
▁заборонити	-11665
▁харківщину	-11666
▁білогорівка	-11667
▁запровадила	-11668
▁санкційного	-11669
▁спортсменів	-11670
▁господарські	-11671
▁продовольчої	-11672
▁транспортних	-11673
▁комендантська	-11674
▁повномасштабне	-11675
▁розвідувальних	-11676
?»	-11677
.07	-11678
ina	-11679
org	-11680
жки	-11681
▁йш	-11682
▁цу	-11683
дала	-11684
далі	-11685
кона	-11686
ляла	-11687
полю	-11688
роса	-11689
симо	-11690
сіті	-11691
▁13-	-11692
▁20-	-11693
▁inv	-11694
▁дим	-11695
▁дит	-11696
▁лло	-11697
▁они	-11698
conom	-11699
йорку	-11700
метро	-11701
щений	-11702
▁bild	-11703
▁жене	-11704
▁кажу	-11705
▁ленд	-11706
▁напи	-11707
▁оріх	-11708
▁тихо	-11709
автомо	-11710
польща	-11711
ційною	-11712
▁артем	-11713
▁боєць	-11714
▁вбито	-11715
▁ввели	-11716
▁видан	-11717
▁гучно	-11718
▁доказ	-11719
▁запис	-11720
▁кадро	-11721
▁клопо	-11722
▁напов	-11723
▁ольга	-11724
▁першо	-11725
▁політ	-11726
▁родом	-11727
▁роках	-11728
▁санкт	-11729
▁схеми	-11730
▁убити	-11731
жується	-11732
увались	-11733
▁econom	-11734
▁балтії	-11735
▁вивезе	-11736
▁виступ	-11737
▁відкла	-11738
▁графік	-11739
▁друзям	-11740
▁завдає	-11741
▁обрали	-11742
▁погово	-11743
▁сержан	-11744
▁стріль	-11745
▁адвокат	-11746
▁безпере	-11747
▁місцеве	-11748
▁пасажир	-11749
▁порядок	-11750
▁системі	-11751
▁сучасні	-11752
▁балаклії	-11753
▁високото	-11754
▁дивитися	-11755
▁показник	-11756
▁призведе	-11757
▁створила	-11758
▁сєнкевич	-11759
▁фотограф	-11760
▁швидкого	-11761
▁випустила	-11762
▁державній	-11763
▁справедли	-11764
▁спільного	-11765
▁судноплав	-11766
▁тактичних	-11767
▁территори	-11768
▁утриманні	-11769
▁ліквідацію	-11770
▁німецького	-11771
▁продовжили	-11772
▁цивільному	-11773
▁очаківської	-11774
▁потрапляння	-11775
▁розташовані	-11776
▁спеціальної	-11777
▁енергоблоків	-11778
▁зосереджувати	-11779
86	-11780
za	-11781
ery	-11782
бни	-11783
жав	-11784
хви	-11785
▁04	-11786
▁ot	-11787
белі	-11788
мань	-11789
седе	-11790
ючий	-11791
▁106	-11792
▁day	-11793
▁max	-11794
▁бес	-11795
▁ден	-11796
▁дтп	-11797
▁моя	-11798
▁рас	-11799
▁яру	-11800
▁⚡️«	-11801
rench	-11802
відео	-11803
жними	-11804
несла	-11805
преце	-11806
щання	-11807
їхати	-11808
▁боже	-11809
▁збив	-11810
▁зору	-11811
▁натя	-11812
▁флан	-11813
radley	-11814
жності	-11815
корабе	-11816
річної	-11817
▁зґвал	-11818
▁лаврі	-11819
▁писав	-11820
▁спові	-11821
▁черзі	-11822
▁індії	-11823
▁авіаба	-11824
▁берест	-11825
▁бійцям	-11826
▁закупи	-11827
▁мирний	-11828
▁наполя	-11829
▁подвір	-11830
▁реаліз	-11831
▁травму	-11832
▁успіхи	-11833
▁бронема	-11834
▁вдарила	-11835
▁другому	-11836
▁зібрані	-11837
▁лунають	-11838
▁почнуть	-11839
▁світлом	-11840
▁хоробро	-11841
▁чергові	-11842
▁займався	-11843
▁кампанію	-11844
▁листівки	-11845
▁лишилось	-11846
▁невідома	-11847
▁особисті	-11848
▁розуміти	-11849
▁фейсбуці	-11850
ясовуються	-11851
▁захищаємо	-11852
▁трибуналу	-11853
▁іноземців	-11854
▁відповідну	-11855
▁енергодару	-11856
▁застосунок	-11857
▁офіційному	-11858
▁розпочався	-11859
▁росгвардії	-11860
▁створювати	-11861
▁супермарке	-11862
▁безпілотних	-11863
▁водосховища	-11864
▁відреагував	-11865
▁пошкоджений	-11866
▁тимчасового	-11867
▁поліцейських	-11868
▁госпіталізовані	-11869
--	-11870
-6	-11871
ke	-11872
nii	-11873
ект	-11874
жих	-11875
хає	-11876
ізо	-11877
▁(6	-11878
▁+3	-11879
▁ad	-11880
esty	-11881
ріла	-11882
ская	-11883
▁фра	-11884
enkop	-11885
мував	-11886
рован	-11887
тівка	-11888
чість	-11889
▁заче	-11890
▁садо	-11891
▁тилу	-11892
▁фаши	-11893
каналі	-11894
ковому	-11895
продов	-11896
▁20:00	-11897
▁водія	-11898
▁запас	-11899
▁збиті	-11900
▁кольо	-11901
▁легіо	-11902
▁мірку	-11903
▁робив	-11904
▁сфери	-11905
▁ціною	-11906
▁чатбо	-11907
жуються	-11908
льності	-11909
тягнути	-11910
▁висвіт	-11911
▁гроссі	-11912
▁грудні	-11913
▁ердога	-11914
▁кирила	-11915
▁нічний	-11916
▁оплати	-11917
▁подоро	-11918
▁ризику	-11919
▁россия	-11920
▁русскі	-11921
▁різдво	-11922
▁defense	-11923
▁братчук	-11924
▁версією	-11925
▁зібрано	-11926
▁перерах	-11927
▁пожертв	-11928
▁поширте	-11929
▁продукт	-11930
▁сумщина	-11931
▁тижнями	-11932
▁ударний	-11933
▁фракції	-11934
▁виглядом	-11935
▁втратами	-11936
▁відпраць	-11937
▁гідності	-11938
▁детально	-11939
▁прийняла	-11940
▁прігожин	-11941
▁увійдуть	-11942
▁шевченко	-11943
▁дипломати	-11944
▁загоряння	-11945
▁листопаді	-11946
▁міркувань	-11947
▁передавав	-11948
▁передають	-11949
▁поставили	-11950
▁газопровід	-11951
▁докладніше	-11952
▁найбільшим	-11953
▁погрожують	-11954
▁розглянути	-11955
▁запровадити	-11956
▁колаборанти	-11957
▁випробування	-11958
▁розпочнеться	-11959
▁таврійського	-11960
▁проросійський	-11961
▁європарламенту	-11962
▁мотострілецької	-11963
98	-11964
?🤔	-11965
бре	-11966
жне	-11967
фак	-11968
▁ог	-11969
вано	-11970
гідь	-11971
ляни	-11972
тове	-11973
філь	-11974
їхав	-11975
▁128	-11976
▁dan	-11977
▁wel	-11978
portu	-11979
ковій	-11980
▁боло	-11981
▁врем	-11982
▁гори	-11983
▁кози	-11984
▁моди	-11985
▁нава	-11986
▁хаба	-11987
віться	-11988
дуться	-11989
торією	-11990
▁гідро	-11991
▁зайце	-11992
▁класу	-11993
▁пекло	-11994
▁полег	-11995
▁редже	-11996
▁хвилю	-11997
ленерго	-11998
найбіль	-11999
явиться	-12000
▁occupi	-12001
▁богдан	-12002
▁бойове	-12003
▁дочека	-12004
▁обсяги	-12005
▁подоба	-12006
▁примор	-12007
▁станов	-12008
▁стають	-12009
▁телеві	-12010
▁уважно	-12011
▁виборах	-12012
▁вивести	-12013
▁відріза	-12014
▁другого	-12015
▁знайоми	-12016
▁зрештою	-12017
▁колонії	-12018
▁контрак	-12019
▁крилату	-12020
▁острові	-12021
▁півтора	-12022
▁реформи	-12023
▁российс	-12024
▁рятують	-12025
▁суверен	-12026
▁генерала	-12027
▁нехтуйте	-12028
▁опитаних	-12029
▁ткаченко	-12030
enkopaypal	-12031
▁відомства	-12032
▁найбільшу	-12033
▁підполков	-12034
▁реквізити	-12035
▁рубіжному	-12036
▁справжній	-12037
▁швидкість	-12038
▁допомагали	-12039
▁будівництва	-12040
▁проводяться	-12041
▁підрозділам	-12042
▁міжнародними	-12043
▁опублікувала	-12044
▁рекомендації	-12045
▁шахтарському	-12046
▁інформаційний	-12047
▁sternenkopaypal	-12048
:5	-12049
лся	-12050
люс	-12051
мос	-12052
туш	-12053
цию	-12054
▁02	-12055
ment	-12056
ture	-12057
рної	-12058
шила	-12059
▁126	-12060
▁30-	-12061
▁win	-12062
▁люб	-12063
dopom	-12064
бують	-12065
жного	-12066
нести	-12067
промі	-12068
свобо	-12069
▁дещо	-12070
▁кндр	-12071
▁мопе	-12072
▁поду	-12073
▁полк	-12074
▁собо	-12075
▁ілон	-12076
евакуа	-12077
лабора	-12078
носить	-12079
промис	-12080
▁their	-12081
▁всіма	-12082
▁жодна	-12083
▁куточ	-12084
▁надії	-12085
▁подох	-12086
▁рекор	-12087
telegra	-12088
констру	-12089
▁вбиває	-12090
▁загост	-12091
▁заявки	-12092
▁мережа	-12093
▁напади	-12094
▁настро	-12095
▁незмін	-12096
▁проект	-12097
▁пєсков	-12098
▁суддів	-12099
▁сформу	-12100
▁хочете	-12101
▁центри	-12102
бомбових	-12103
▁5375411	-12104
▁авакова	-12105
▁високий	-12106
▁встигли	-12107
▁дозволи	-12108
▁законів	-12109
▁зацікав	-12110
▁коптери	-12111
▁поцілив	-12112
▁підстав	-12113
▁сказали	-12114
▁випущено	-12115
▁відремон	-12116
▁зважаючи	-12117
▁курської	-12118
▁повноцін	-12119
▁покинули	-12120
▁спільної	-12121
▁василівка	-12122
▁взаємодії	-12123
▁економіка	-12124
▁заборонив	-12125
▁ракетними	-12126
▁займаються	-12127
▁залишились	-12128
▁запчастини	-12129
▁коронавіру	-12130
▁міжнародну	-12131
▁іранського	-12132
▁відсутності	-12133
▁небезпечних	-12134
▁харківський	-12135
▁центральної	-12136
▁американська	-12137
▁відправлення	-12138
▁розповідаємо	-12139
▁дотримуватися	-12140
no	-12141
кл	-12142
▁.	-12143
emy	-12144
gre	-12145
oup	-12146
вой	-12147
нгу	-12148
.02.	-12149
span	-12150
бори	-12151
вать	-12152
ером	-12153
ліст	-12154
нети	-12155
овні	-12156
твор	-12157
учас	-12158
шини	-12159
▁234	-12160
▁баш	-12161
▁тил	-12162
▁імі	-12163
війна	-12164
▁2017	-12165
▁аміа	-12166
▁заря	-12167
▁ідеї	-12168
▁інгу	-12169
french	-12170
дустрі	-12171
▁16:30	-12172
▁18:00	-12173
▁гонча	-12174
▁подія	-12175
▁праці	-12176
▁прочи	-12177
▁роком	-12178
▁серця	-12179
▁хрест	-12180
italian	-12181
кований	-12182
перероб	-12183
техніку	-12184
▁дорогу	-12185
▁колоні	-12186
▁кінець	-12187
▁ознаки	-12188
▁парале	-12189
▁партій	-12190
▁послід	-12191
▁родичі	-12192
▁стрємо	-12193
▁церков	-12194
▁🇺🇦🇺🇦🇺🇦	-12195
джуються	-12196
ракетний	-12197
▁against	-12198
▁запуску	-12199
▁змінили	-12200
▁консуль	-12201
▁меморан	-12202
▁помешка	-12203
▁почався	-12204
▁розроби	-12205
▁розшуку	-12206
▁хороших	-12207
львівська	-12208
▁запускає	-12209
▁окремого	-12210
▁податків	-12211
▁прийнято	-12212
▁північна	-12213
▁численні	-12214
херсонська	-12215
▁агресором	-12216
▁гвинтокри	-12217
▁доставити	-12218
▁захисниця	-12219
▁наведення	-12220
▁незалежно	-12221
▁нормально	-12222
▁окупацією	-12223
▁перетвори	-12224
▁прилетіли	-12225
▁підписати	-12226
▁розуміємо	-12227
▁соціальні	-12228
▁досліджень	-12229
▁приватному	-12230
▁приміщенні	-12231
▁сподіваюсь	-12232
▁університе	-12233
▁бахмутський	-12234
▁громадських	-12235
▁комунікації	-12236
▁підтвердила	-12237
▁миколаївщини	-12238
▁навантаження	-12239
ck	-12240
uch	-12241
ллю	-12242
мку	-12243
рги	-12244
ріг	-12245
▁el	-12246
ages	-12247
деся	-12248
знес	-12249
номи	-12250
пали	-12251
чіль	-12252
шись	-12253
▁min	-12254
▁всу	-12255
▁неу	-12256
▁ону	-12257
▁тец	-12258
nesty	-12259
нової	-12260
▁(+6)	-12261
▁вдру	-12262
▁зара	-12263
▁зроб	-12264
▁майо	-12265
▁отрк	-12266
▁щиро	-12267
валась	-12268
цькому	-12269
▁дезер	-12270
▁зміню	-12271
▁марки	-12272
▁могло	-12273
▁нагля	-12274
▁підлі	-12275
▁терак	-12276
spanish	-12277
ованими	-12278
явилася	-12279
▁europe	-12280
▁forbes	-12281
▁висока	-12282
▁забрав	-12283
▁заявил	-12284
▁збитий	-12285
▁здатна	-12286
▁зоопар	-12287
▁кремлі	-12288
▁медици	-12289
▁метало	-12290
▁планів	-12291
▁підста	-12292
▁пілоти	-12293
▁смерте	-12294
▁резиден	-12295
▁спільне	-12296
▁східній	-12297
▁терміна	-12298
▁аеропорт	-12299
▁вірменії	-12300
▁готувати	-12301
▁загально	-12302
▁перетину	-12303
▁причетні	-12304
▁пунктами	-12305
▁створено	-12306
▁сусідніх	-12307
▁виправдов	-12308
▁найбільші	-12309
▁перевірку	-12310
▁подальшої	-12311
▁фотографі	-12312
▁запрошення	-12313
▁квадратних	-12314
▁прокурорів	-12315
▁балістичних	-12316
▁батьківщини	-12317
▁енергетичну	-12318
▁самопроголо	-12319
▁британського	-12320
▁добровольців	-12321
▁нагородження	-12322
▁бронетранспор	-12323
▁протитанкових	-12324
▁справедливості	-12325
▁функціонування	-12326
91	-12327
pl	-12328
бю	-12329
єй	-12330
-29	-12331
.05	-12332
/23	-12333
:20	-12334
son	-12335
важ	-12336
тію	-12337
щів	-12338
▁81	-12339
▁87	-12340
бата	-12341
лкул	-12342
муні	-12343
рови	-12344
тарі	-12345
ятий	-12346
▁$1,	-12347
▁14-	-12348
▁93-	-12349
▁азс	-12350
▁ово	-12351
▁хід	-12352
▁шма	-12353
вибух	-12354
дійсь	-12355
жував	-12356
льянс	-12357
новок	-12358
ськом	-12359
тингу	-12360
▁land	-12361
▁бара	-12362
▁касп	-12363
▁міше	-12364
▁спов	-12365
▁швед	-12366
джених	-12367
ованій	-12368
спонсо	-12369
язаний	-12370
▁вашої	-12371
▁вбила	-12372
▁викри	-12373
▁влашт	-12374
▁кліні	-12375
▁назви	-12376
▁прови	-12377
▁проки	-12378
▁репре	-12379
▁умані	-12380
▁фунда	-12381
язнених	-12382
▁petrov	-12383
▁велике	-12384
▁грузин	-12385
▁групою	-12386
▁двадця	-12387
▁когось	-12388
▁неділю	-12389
▁особам	-12390
▁призво	-12391
▁пусків	-12392
▁підзем	-12393
▁цікаві	-12394
міжнарод	-12395
рятуваль	-12396
українці	-12397
▁забрала	-12398
▁захищав	-12399
▁посилює	-12400
▁стрічки	-12401
▁безпреце	-12402
▁корупції	-12403
▁кількома	-12404
▁максимум	-12405
▁розвідці	-12406
▁розпочав	-12407
▁самозахи	-12408
▁фахівців	-12409
▁австралія	-12410
▁важкопора	-12411
▁виробляти	-12412
▁голодомор	-12413
▁кремінної	-12414
▁новомихай	-12415
▁проводили	-12416
▁агропродук	-12417
▁відправить	-12418
▁застосунку	-12419
▁міжнародне	-12420
▁небезпечно	-12421
▁покращення	-12422
▁посилювати	-12423
▁посвідчення	-12424
▁підтоплення	-12425
▁добровольцем	-12426
▁протестуваль	-12427
▁сподіваємось	-12428
▁сподівається	-12429
ud	-12430
yl	-12431
пр	-12432
-72	-12433
ach	-12434
ski	-12435
зня	-12436
кос	-12437
наф	-12438
ное	-12439
ось	-12440
пах	-12441
шку	-12442
єди	-12443
hein	-12444
rate	-12445
віду	-12446
зали	-12447
крем	-12448
тник	-12449
турі	-12450
єкта	-12451
▁уси	-12452
ition	-12453
йдуть	-12454
льник	-12455
нітар	-12456
петер	-12457
ренні	-12458
ресур	-12459
▁must	-12460
▁зиму	-12461
▁тема	-12462
завтра	-12463
▁peace	-12464
▁press	-12465
▁важку	-12466
▁відпу	-12467
▁госпо	-12468
▁живий	-12469
▁комбі	-12470
▁накри	-12471
▁петра	-12472
▁подви	-12473
▁стаді	-12474
▁сумні	-12475
▁тяжкі	-12476
▁уника	-12477
▁форми	-12478
▁школі	-12479
▁януше	-12480
▁інфек	-12481
уватись	-12482
▁вілкул	-12483
▁вірити	-12484
▁доволі	-12485
▁містян	-12486
▁новосі	-12487
▁валерія	-12488
▁воїнами	-12489
▁жодному	-12490
▁польщею	-12491
▁поліклі	-12492
▁режисер	-12493
▁утримує	-12494
sternenko	-12495
▁атакують	-12496
▁будувати	-12497
▁бундеста	-12498
▁висновок	-12499
▁голосіїв	-12500
▁енергети	-12501
▁компанію	-12502
▁легендар	-12503
▁народний	-12504
▁ситуацій	-12505
▁спадщини	-12506
міністерка	-12507
▁вистачить	-12508
▁відсотків	-12509
▁дозволили	-12510
▁здатність	-12511
▁магазинів	-12512
▁отриманих	-12513
▁поширюють	-12514
▁ранкового	-12515
▁броньовані	-12516
▁звернутися	-12517
▁подивіться	-12518
▁підписання	-12519
▁становлять	-12520
▁гарантувати	-12521
▁притягнення	-12522
▁спілкування	-12523
▁стрілецької	-12524
▁маріупольська	-12525
▁хмельницькому	-12526
▁інтенсивність	-12527
rs	-12528
amp	-12529
ніч	-12530
орі	-12531
оти	-12532
єно	-12533
▁5.	-12534
▁ca	-12535
▁tr	-12536
▁их	-12537
-555	-12538
жної	-12539
мбур	-12540
реди	-12541
ціль	-12542
▁(+7	-12543
▁102	-12544
▁ану	-12545
▁вес	-12546
▁впо	-12547
▁зон	-12548
▁кав	-12549
▁▪️"	-12550
нація	-12551
прому	-12552
туємо	-12553
▁аргу	-12554
▁бачу	-12555
▁болю	-12556
▁ввів	-12557
▁друг	-12558
▁киян	-12559
▁лихо	-12560
▁мусо	-12561
▁чаес	-12562
▁юсов	-12563
▁яков	-12564
города	-12565
нулися	-12566
тивної	-12567
тичною	-12568
ховому	-12569
▁книги	-12570
▁листи	-12571
▁лунає	-12572
▁надто	-12573
▁надія	-12574
▁носія	-12575
▁обкла	-12576
▁покри	-12577
▁пішла	-12578
▁турні	-12579
агресор	-12580
надцять	-12581
▁альянс	-12582
▁вдруге	-12583
▁вибори	-12584
▁видобу	-12585
▁викори	-12586
▁виплат	-12587
▁заважа	-12588
▁лікаря	-12589
▁нелега	-12590
▁премію	-12591
▁сотень	-12592
▁фільму	-12593
▁цілому	-12594
▁victory	-12595
▁гандзюк	-12596
▁екіпажу	-12597
▁касетні	-12598
▁називає	-12599
▁платити	-12600
▁потужна	-12601
▁поїздки	-12602
▁тривала	-12603
волинська	-12604
▁апаратів	-12605
▁безпечно	-12606
▁вікторія	-12607
▁дефіциту	-12608
▁злочинці	-12609
▁знайдено	-12610
▁континен	-12611
▁мовлення	-12612
▁можливий	-12613
▁можливих	-12614
▁передані	-12615
▁перейшов	-12616
▁хлопчика	-12617
снянському	-12618
▁бойовиків	-12619
▁виїжджати	-12620
▁делегація	-12621
▁захисниць	-12622
▁змінилося	-12623
▁конкретні	-12624
▁кримський	-12625
▁наступати	-12626
▁одеського	-12627
▁перемогою	-12628
▁полковник	-12629
▁попередню	-12630
▁призвести	-12631
▁телеканал	-12632
▁штурмовик	-12633
постачанням	-12634
▁зруйноване	-12635
▁київського	-12636
▁реальність	-12637
▁тестування	-12638
▁травмовано	-12639
▁інстаграмі	-12640
▁вагнерівців	-12641
▁переговорах	-12642
▁повідомляти	-12643
▁синельників	-12644
▁єврокомісія	-12645
▁відправляють	-12646
▁застосовують	-12647
▁коронавірусу	-12648
▁солідарність	-12649
▁комендантську	-12650
▁повідомленнями	-12651
83	-12652
89	-12653
цы	-12654
ena	-12655
iss	-12656
oga	-12657
old	-12658
біч	-12659
лик	-12660
люк	-12661
▁82	-12662
▁👉🏻	-12663
obal	-12664
вога	-12665
гера	-12666
доне	-12667
лову	-12668
ляка	-12669
сієм	-12670
▁190	-12671
▁или	-12672
▁оце	-12673
альні	-12674
ваємо	-12675
ненко	-12676
стять	-12677
тарів	-12678
▁more	-12679
▁балт	-12680
▁бунк	-12681
▁напо	-12682
▁рано	-12683
▁філа	-12684
▁щоби	-12685
▁этом	-12686
непоко	-12687
центрі	-12688
▁14:00	-12689
▁будут	-12690
▁вимог	-12691
▁ковід	-12692
▁космі	-12693
▁напев	-12694
▁перех	-12695
▁рівно	-12696
▁снігу	-12697
▁фінан	-12698
▁яскра	-12699
кованих	-12700
▁земель	-12701
▁наміри	-12702
▁перене	-12703
▁символ	-12704
▁трофей	-12705
спондент	-12706
▁батареї	-12707
▁воєнної	-12708
▁граждан	-12709
▁додаток	-12710
▁зайняті	-12711
▁змагань	-12712
▁золочів	-12713
▁лондоні	-12714
▁податки	-12715
▁підвалі	-12716
▁твіттер	-12717
▁боронять	-12718
▁героїчно	-12719
▁залучені	-12720
▁колишніх	-12721
▁коптерів	-12722
▁медичний	-12723
▁міністри	-12724
▁тривалий	-12725
російський	-12726
▁брянської	-12727
▁відбулась	-12728
▁відновлює	-12729
▁відправки	-12730
▁запобігти	-12731
▁запустити	-12732
▁заявляють	-12733
▁зеленский	-12734
▁останніми	-12735
▁політичні	-12736
▁пріоритет	-12737
▁реактивні	-12738
▁рухаються	-12739
▁станеться	-12740
▁фінансові	-12741
▁додатковий	-12742
▁кримському	-12743
▁припиняють	-12744
▁залізничний	-12745
▁користувачів	-12746
▁нафтоперероб	-12747
▁електромережі	-12748
▁розвідувальні	-12749
34	-12750
ox	-12751
sl	-12752
ут	-12753
джи	-12754
дол	-12755
жин	-12756
пад	-12757
руб	-12758
схе	-12759
єні	-12760
▁€1	-12761
▁💛💙	-12762
rakt	-12763
бана	-12764
гією	-12765
звою	-12766
кцію	-12767
лера	-12768
пеню	-12769
сара	-12770
сило	-12771
▁35-	-12772
▁cor	-12773
▁смо	-12774
alush	-12775
yvnii	-12776
мисно	-12777
ренко	-12778
стрій	-12779
ятьох	-12780
▁аксь	-12781
▁буча	-12782
▁біла	-12783
▁знав	-12784
▁коно	-12785
▁кулі	-12786
▁міра	-12787
▁посі	-12788
▁фоні	-12789
metall	-12790
женого	-12791
заступ	-12792
▁грани	-12793
▁друге	-12794
▁манев	-12795
▁неспо	-12796
▁соціо	-12797
▁сумах	-12798
▁чорне	-12799
▁ірані	-12800
▁їдуть	-12801
▁агента	-12802
▁берлін	-12803
▁важкою	-12804
▁видачу	-12805
▁волині	-12806
▁дніпру	-12807
▁золота	-12808
▁контек	-12809
▁металу	-12810
▁нагоди	-12811
▁назвою	-12812
▁ніяких	-12813
▁обрати	-12814
▁поїхав	-12815
▁руками	-12816
▁спілку	-12817
▁bradley	-12818
▁виконує	-12819
▁власний	-12820
▁власної	-12821
▁вогнепа	-12822
▁ворогам	-12823
▁ворожим	-12824
▁ключові	-12825
▁музикан	-12826
▁пояснює	-12827
▁підняли	-12828
▁підраху	-12829
▁сигнали	-12830
▁вилучили	-12831
▁відносно	-12832
▁відчуття	-12833
▁дитячого	-12834
▁закладах	-12835
▁закупити	-12836
▁залучити	-12837
▁побачимо	-12838
▁потрібне	-12839
▁привезли	-12840
▁ремонтні	-12841
▁третього	-12842
heinmetall	-12843
печерської	-12844
рівненська	-12845
▁архітекту	-12846
▁завершити	-12847
▁запустила	-12848
▁масованих	-12849
▁невідомий	-12850
▁перемагає	-12851
▁переправи	-12852
▁позбавити	-12853
▁польський	-12854
▁посилюють	-12855
▁швейцарія	-12856
operatyvnii	-12857
▁визволення	-12858
▁землетрусу	-12859
▁неймовірно	-12860
▁необхідним	-12861
▁офіційними	-12862
▁перевірити	-12863
▁походження	-12864
▁недопущення	-12865
▁суверенітет	-12866
▁євробачення	-12867
▁кримінальних	-12868
▁херсонського	-12869
81	-12870
оп	-12871
ous	-12872
und	-12873
кую	-12874
чес	-12875
reat	-12876
view	-12877
ливу	-12878
март	-12879
міно	-12880
союз	-12881
тіти	-12882
▁112	-12883
▁15.	-12884
▁del	-12885
▁has	-12886
▁ввс	-12887
▁меж	-12888
▁нет	-12889
▁фле	-12890
▁іри	-12891
звіль	-12892
ляємо	-12893
▁cont	-12894
▁богу	-12895
▁голу	-12896
▁каца	-12897
▁симп	-12898
▁юсти	-12899
▁інди	-12900
вибухи	-12901
чували	-12902
ятаємо	-12903
▁вікон	-12904
▁камер	-12905
▁моска	-12906
▁мінку	-12907
▁павла	-12908
▁платі	-12909
▁самим	-12910
▁чечен	-12911
вальних	-12912
ваються	-12913
забезпе	-12914
свобода	-12915
▁безкар	-12916
▁ввести	-12917
▁вулиця	-12918
▁гинуть	-12919
▁забруд	-12920
▁кабіне	-12921
▁північ	-12922
▁суворо	-12923
▁токмак	-12924
▁усьому	-12925
.03.2022	-12926
▁бельгія	-12927
▁великим	-12928
▁виділяє	-12929
▁залишив	-12930
▁мільярд	-12931
▁навпаки	-12932
▁прапора	-12933
▁прибува	-12934
▁швейцар	-12935
суспільне	-12936
▁агресору	-12937
▁важливим	-12938
▁виявлені	-12939
▁військам	-12940
▁занепоко	-12941
▁катували	-12942
▁літальних	-12943
▁можливого	-12944
▁окуповану	-12945
▁осколкові	-12946
▁прапорами	-12947
▁підірвати	-12948
▁цивільним	-12949
▁доводиться	-12950
▁дотримання	-12951
▁утримувати	-12952
міністерство	-12953
▁громадський	-12954
▁дарницькому	-12955
▁електронних	-12956
▁знадобиться	-12957
▁недостатньо	-12958
▁підготували	-12959
▁розгортання	-12960
▁проросійські	-12961
▁чернівецькій	-12962
▁чернігівщини	-12963
▁інформаційну	-12964
,8	-12965
/4	-12966
ун	-12967
▁🤔	-12968
ang	-12969
ult	-12970
али	-12971
пих	-12972
▁пд	-12973
▁ца	-12974
мемо	-12975
нату	-12976
нках	-12977
один	-12978
▁111	-12979
▁30%	-12980
▁70%	-12981
▁one	-12982
▁схи	-12983
▁ухи	-12984
▁шлю	-12985
атлан	-12986
кають	-12987
партн	-12988
▁ваше	-12989
▁вечі	-12990
▁звук	-12991
▁кали	-12992
▁ноги	-12993
▁свят	-12994
raktar	-12995
жували	-12996
трівка	-12997
▁16:00	-12998
▁group	-12999
▁дамби	-13000
▁женев	-13001
▁малюк	-13002
▁новою	-13003
▁печер	-13004
▁посів	-13005
▁підле	-13006
▁речей	-13007
▁розка	-13008
▁смарт	-13009
▁трапи	-13010
▁числа	-13011
чаються	-13012
▁гомель	-13013
▁донька	-13014
▁корпус	-13015
▁обидва	-13016
▁парижі	-13017
▁фунтів	-13018
facebook	-13019
більшого	-13020
ракетних	-13021
▁агентів	-13022
▁експерт	-13023
▁зробить	-13024
▁лідером	-13025
▁минулий	-13026
▁орденом	-13027
▁принцип	-13028
▁просити	-13029
▁підозрі	-13030
▁розібра	-13031
▁танками	-13032
▁юстиції	-13033
гуманітар	-13034
▁договору	-13035
▁доступні	-13036
▁зниклими	-13037
▁знищених	-13038
▁критичну	-13039
▁ознайоми	-13040
▁світовій	-13041
▁інтереси	-13042
▁байрактар	-13043
▁вирішення	-13044
▁гостомелі	-13045
▁екстреної	-13046
▁захищаючи	-13047
▁зеленська	-13048
▁наявності	-13049
▁необхідна	-13050
▁підлітків	-13051
▁білоруські	-13052
▁вінницькій	-13053
▁казахстану	-13054
▁насильства	-13055
▁оборонного	-13056
▁публікують	-13057
▁реальності	-13058
▁сміливість	-13059
▁сіверський	-13060
▁десятиліття	-13061
▁пораненнями	-13062
▁гуманітарною	-13063
▁економічного	-13064
▁контролювати	-13065
▁хмельниччині	-13066
▁розпорядження	-13067
єт	-13068
-06	-13069
:15	-13070
age	-13071
зас	-13072
йня	-13073
щад	-13074
яні	-13075
▁ge	-13076
▁go	-13077
▁сь	-13078
ilit	-13079
ower	-13080
turk	-13081
ніци	-13082
скій	-13083
стви	-13084
тово	-13085
трий	-13086
щили	-13087
▁240	-13088
▁его	-13089
▁зра	-13090
▁кол	-13091
epard	-13092
зобов	-13093
неної	-13094
пають	-13095
чаємо	-13096
▁волю	-13097
▁жили	-13098
▁залі	-13099
▁мрія	-13100
▁наго	-13101
▁нати	-13102
▁нєби	-13103
▁тота	-13104
▁ферм	-13105
▁юрія	-13106
еологі	-13107
кувало	-13108
легідь	-13109
тримка	-13110
▁thank	-13111
▁бомбу	-13112
▁зняли	-13113
▁колон	-13114
▁ліній	-13115
▁цирку	-13116
turkish	-13117
▁аукціо	-13118
▁високу	-13119
▁екстра	-13120
▁зерном	-13121
▁кинули	-13122
▁колеги	-13123
▁мостом	-13124
▁нацист	-13125
▁прихов	-13126
▁рейсів	-13127
▁списки	-13128
▁урядом	-13129
▁фактом	-13130
▁amnesty	-13131
▁вагнера	-13132
▁важкого	-13133
▁дарниця	-13134
▁доручив	-13135
▁думають	-13136
▁змінила	-13137
▁надходи	-13138
▁пшениці	-13139
▁розгляд	-13140
▁ступеню	-13141
▁укритті	-13142
▁успіхів	-13143
комплекту	-13144
▁авіацією	-13145
▁вимушені	-13146
▁вирішити	-13147
▁відсторо	-13148
▁допомозі	-13149
▁загибелі	-13150
▁застосов	-13151
▁звільнив	-13152
▁нагороди	-13153
▁оператор	-13154
▁парамеди	-13155
▁послідов	-13156
▁соледара	-13157
▁хорватії	-13158
▁хочеться	-13159
▁анонсував	-13160
▁припинили	-13161
▁безуспішно	-13162
▁включатиме	-13163
▁громадські	-13164
▁дозволяють	-13165
▁зовнішньої	-13166
▁миколаївка	-13167
▁наголосили	-13168
▁португалії	-13169
▁укріплення	-13170
▁безпрецеден	-13171
▁відсьогодні	-13172
▁залізничних	-13173
тернопільська	-13174
▁відреагували	-13175
▁заарештували	-13176
▁попередження	-13177
▁пропагандиста	-13178
:40	-13179
ade	-13180
are	-13181
int	-13182
плі	-13183
тає	-13184
їмо	-13185
▁уч	-13186
▁шк	-13187
дрон	-13188
друж	-13189
лару	-13190
міся	-13191
стар	-13192
тору	-13193
шать	-13194
▁мвф	-13195
▁мон	-13196
▁трю	-13197
▁чар	-13198
czech	-13199
бання	-13200
ковом	-13201
нформ	-13202
одеса	-13203
▁влад	-13204
▁грав	-13205
▁коте	-13206
▁крав	-13207
▁фаль	-13208
вранці	-13209
ковими	-13210
ованою	-13211
спецзв	-13212
тимемо	-13213
▁ввела	-13214
▁голів	-13215
▁дерга	-13216
▁заряд	-13217
▁курсу	-13218
▁кінці	-13219
▁майор	-13220
▁науки	-13221
▁старі	-13222
▁черги	-13223
бойових	-13224
неможли	-13225
янський	-13226
▁gepard	-13227
▁важких	-13228
▁воллес	-13229
▁восени	-13230
▁впевне	-13231
▁землею	-13232
▁зняття	-13233
▁концен	-13234
▁поради	-13235
▁розкра	-13236
▁спрово	-13237
▁суботу	-13238
дайджест	-13239
▁country	-13240
▁антоніу	-13241
▁безопла	-13242
▁вокзалі	-13243
▁запеклі	-13244
▁навколи	-13245
▁перемир	-13246
▁пошкодж	-13247
▁єпархії	-13248
▁безпечні	-13249
▁боротись	-13250
▁обмежити	-13251
▁призвело	-13252
▁програмі	-13253
▁співачка	-13254
▁супротив	-13255
▁вибухівку	-13256
▁відбутися	-13257
▁захоплені	-13258
▁нагадують	-13259
▁наголошує	-13260
▁починаючи	-13261
▁проукраїн	-13262
▁резолюції	-13263
▁стійкість	-13264
▁вакцинацію	-13265
▁депортації	-13266
▁катастрофі	-13267
▁комишуваха	-13268
▁навчальний	-13269
▁польського	-13270
▁спеціальні	-13271
▁хоробрість	-13272
▁rheinmetall	-13273
▁автоматично	-13274
▁запобігання	-13275
▁пошкоджених	-13276
▁працівникам	-13277
▁встановлюють	-13278
▁ефективність	-13279
▁марганецькій	-13280
▁організацією	-13281
▁контрольована	-13282
▁олександрівка	-13283
▁підконтрольну	-13284
▁терористичної	-13285
▁хмельницького	-13286
io	-13287
ум	-13288
.11	-13289
ikt	-13290
ros	-13291
way	-13292
бам	-13293
жну	-13294
кры	-13295
мно	-13296
трк	-13297
тір	-13298
цер	-13299
▁ню	-13300
1%96	-13301
нене	-13302
нимо	-13303
ньте	-13304
▁101	-13305
▁36-	-13306
▁450	-13307
амери	-13308
еріть	-13309
сарів	-13310
єднує	-13311
▁+380	-13312
▁oleg	-13313
▁доти	-13314
▁живі	-13315
▁краю	-13316
▁опів	-13317
▁очах	-13318
▁піді	-13319
▁улюб	-13320
portug	-13321
ураган	-13322
шували	-13323
▁андрі	-13324
▁добрі	-13325
▁етапі	-13326
▁здола	-13327
▁карту	-13328
▁маючи	-13329
▁обрав	-13330
▁плате	-13331
▁пісня	-13332
▁розчи	-13333
▁різко	-13334
▁славу	-13335
▁тариф	-13336
▁трасс	-13337
▁фабри	-13338
▁єдине	-13339
russian	-13340
льський	-13341
▁kalush	-13342
▁бровар	-13343
▁більша	-13344
▁вільно	-13345
▁експор	-13346
▁місцем	-13347
▁награб	-13348
▁певних	-13349
▁поверх	-13350
▁сервіс	-13351
▁службі	-13352
▁цистер	-13353
▁виборів	-13354
▁виграти	-13355
▁втрачає	-13356
▁дитячих	-13357
▁ділянок	-13358
▁захисти	-13359
▁збирати	-13360
▁которые	-13361
▁оккупан	-13362
▁перехід	-13363
▁питанні	-13364
▁прибира	-13365
▁процесі	-13366
▁тримали	-13367
▁авіаудар	-13368
▁асамблеї	-13369
▁вибухнув	-13370
▁вивозити	-13371
▁виходять	-13372
▁кадирова	-13373
▁катерини	-13374
▁клієнтів	-13375
▁курській	-13376
▁масштаби	-13377
▁німецькі	-13378
▁погрожує	-13379
▁прикордо	-13380
▁червоний	-13381
вагнерівці	-13382
мастильних	-13383
▁абонентів	-13384
▁бєлгороді	-13385
▁виконував	-13386
▁власності	-13387
▁командири	-13388
▁платформу	-13389
▁реагувати	-13390
▁вінниччині	-13391
▁звинуватив	-13392
▁можливістю	-13393
▁надсилайте	-13394
▁призначені	-13395
▁продовжать	-13396
▁північному	-13397
▁союзниками	-13398
▁травмовані	-13399
▁фінансових	-13400
▁інтеграції	-13401
▁лабораторно	-13402
▁посилаючись	-13403
▁причетність	-13404
▁енергетичній	-13405
▁протитанкові	-13406
▁домовленостей	-13407
▁розповсюдження	-13408
2)	-13409
oh	-13410
»;	-13411
❤️	-13412
🔥🔥	-13413
ast	-13414
вел	-13415
жим	-13416
єри	-13417
▁sl	-13418
.03.	-13419
вити	-13420
демі	-13421
змом	-13422
ланд	-13423
мала	-13424
ніші	-13425
одна	-13426
хочу	-13427
чило	-13428
▁sec	-13429
▁дах	-13430
▁еше	-13431
▁лам	-13432
▁лан	-13433
▁опу	-13434
▁хел	-13435
▁юве	-13436
-101/	-13437
greek	-13438
inger	-13439
inter	-13440
ально	-13441
деква	-13442
журна	-13443
номер	-13444
патрі	-13445
ченим	-13446
шають	-13447
▁4112	-13448
▁serv	-13449
▁глад	-13450
▁если	-13451
▁кост	-13452
▁наме	-13453
▁раду	-13454
леними	-13455
товано	-13456
▁впора	-13457
▁відій	-13458
▁гігіє	-13459
▁дозою	-13460
▁зірка	-13461
▁малих	-13462
▁маріо	-13463
▁морів	-13464
▁позов	-13465
▁сергі	-13466
силання	-13467
▁батька	-13468
▁баштан	-13469
▁безпер	-13470
▁блогер	-13471
▁відшко	-13472
▁другій	-13473
▁навряд	-13474
▁найгір	-13475
▁новосе	-13476
▁родину	-13477
▁розкла	-13478
▁середу	-13479
▁трудно	-13480
▁штабів	-13481
dopomoga	-13482
конферен	-13483
▁вантажі	-13484
▁виданню	-13485
▁виявити	-13486
▁загород	-13487
▁закрито	-13488
▁кадиров	-13489
▁модерні	-13490
▁мітинги	-13491
▁обороно	-13492
▁почуття	-13493
▁пускові	-13494
здалегідь	-13495
▁висновки	-13496
▁відсутнє	-13497
▁зроблено	-13498
▁керовані	-13499
▁масовані	-13500
▁передача	-13501
▁подолати	-13502
▁привітав	-13503
▁ретельно	-13504
▁упродовж	-13505
▁двосторон	-13506
▁дізнатися	-13507
▁краснодар	-13508
▁мешканець	-13509
▁порівняно	-13510
▁присвоєно	-13511
▁самохідні	-13512
▁станіслав	-13513
▁бомбосхови	-13514
▁звернулися	-13515
▁координати	-13516
▁найскладні	-13517
▁підтримкою	-13518
▁республіка	-13519
▁розвіддані	-13520
▁дистанційно	-13521
▁ексклюзивно	-13522
▁здебільшого	-13523
▁конституції	-13524
▁марганецьку	-13525
▁матеріалами	-13526
▁медикаменти	-13527
▁організацію	-13528
▁полтавської	-13529
▁продовжував	-13530
▁стратегічно	-13531
▁центральних	-13532
▁бомбосховища	-13533
▁організували	-13534
▁постраждалим	-13535
▁прифронтових	-13536
▁інвалідністю	-13537
▁адміністрацій	-13538
ng	-13539
the	-13540
бки	-13541
гай	-13542
рне	-13543
сей	-13544
тех	-13545
шве	-13546
єву	-13547
▁89	-13548
▁97	-13549
▁~$	-13550
▁шт	-13551
крім	-13552
кцій	-13553
немо	-13554
нера	-13555
пала	-13556
рією	-13557
тала	-13558
тимі	-13559
▁(10	-13560
▁230	-13561
▁med	-13562
▁куз	-13563
▁лиш	-13564
▁щер	-13565
довзі	-13566
ления	-13567
шенню	-13568
▁stor	-13569
▁допу	-13570
▁мост	-13571
▁тита	-13572
▁ілля	-13573
заправ	-13574
ксандр	-13575
▁11:00	-13576
▁12:00	-13577
▁17:00	-13578
▁space	-13579
▁важка	-13580
▁вашим	-13581
▁витік	-13582
▁врегу	-13583
▁відхи	-13584
▁плати	-13585
▁помил	-13586
▁транш	-13587
▁трубо	-13588
▁штраф	-13589
генштаб	-13590
збройні	-13591
явились	-13592
▁вакцин	-13593
▁гауляй	-13594
▁горять	-13595
▁екіпаж	-13596
▁застре	-13597
▁зателе	-13598
▁згадує	-13599
▁меморі	-13600
▁налашт	-13601
▁непога	-13602
▁нищать	-13603
▁обидві	-13604
▁освіту	-13605
▁подали	-13606
▁проїзд	-13607
▁трампа	-13608
▁іншому	-13609
▁америка	-13610
▁власним	-13611
▁довкола	-13612
▁заявило	-13613
▁кидають	-13614
▁новоріч	-13615
▁основна	-13616
▁поточну	-13617
▁прийшла	-13618
▁річниці	-13619
▁боронити	-13620
▁виділити	-13621
▁відкрила	-13622
▁державну	-13623
▁доводить	-13624
▁закупили	-13625
▁зрадника	-13626
▁керувати	-13627
▁можливим	-13628
▁подібних	-13629
▁угорщині	-13630
▁хімічної	-13631
▁чернівці	-13632
▁щеплення	-13633
▁індустрі	-13634
▁досягнути	-13635
▁завданням	-13636
▁загиблими	-13637
▁кварталах	-13638
▁наземного	-13639
▁останньої	-13640
▁постанову	-13641
▁правилами	-13642
▁приміщень	-13643
▁ігноруйте	-13644
▁господарчі	-13645
▁диверсійно	-13646
▁затоплення	-13647
▁перешкоджа	-13648
▁політичної	-13649
▁провокацію	-13650
▁продовжила	-13651
▁рівненщині	-13652
▁стосуються	-13653
▁відмовилися	-13654
▁заздалегідь	-13655
▁персональні	-13656
▁республікан	-13657
▁забезпечують	-13658
▁користування	-13659
▁високопосадов	-13660
,7	-13661
ana	-13662
don	-13663
oug	-13664
our	-13665
pat	-13666
жаю	-13667
чев	-13668
шпи	-13669
▁7-	-13670
▁юр	-13671
боти	-13672
думи	-13673
жніх	-13674
зить	-13675
кара	-13676
ломи	-13677
мпіа	-13678
рену	-13679
усов	-13680
черг	-13681
ются	-13682
▁103	-13683
▁буд	-13684
▁ким	-13685
▁кот	-13686
▁мол	-13687
▁пмм	-13688
▁трі	-13689
▁хао	-13690
▁ґра	-13691
thing	-13692
годня	-13693
лився	-13694
сторо	-13695
тками	-13696
щенка	-13697
▁dest	-13698
▁арта	-13699
▁купи	-13700
▁купу	-13701
▁магі	-13702
▁мале	-13703
▁маси	-13704
▁спер	-13705
▁храм	-13706
▁ютуб	-13707
avelin	-13708
читися	-13709
▁вглиб	-13710
▁запам	-13711
▁крово	-13712
▁липні	-13713
▁люксе	-13714
▁орган	-13715
▁перер	-13716
▁пошук	-13717
▁стіни	-13718
▁схему	-13719
▁также	-13720
▁терно	-13721
▁угода	-13722
важливо	-13723
обладна	-13724
сумщина	-13725
▁бориса	-13726
▁версія	-13727
▁думали	-13728
▁загорі	-13729
▁кримом	-13730
▁новово	-13731
▁площею	-13732
▁привер	-13733
▁прикра	-13734
▁розбом	-13735
▁тенден	-13736
▁украин	-13737
▁шляхів	-13738
▁іраном	-13739
▁африкан	-13740
▁богдана	-13741
▁вбитими	-13742
▁десанту	-13743
▁досвіду	-13744
▁діятиме	-13745
▁зібрала	-13746
▁магазин	-13747
▁морські	-13748
▁одужали	-13749
▁окремий	-13750
▁планові	-13751
▁полягає	-13752
▁політик	-13753
▁потужну	-13754
▁румунія	-13755
▁сталися	-13756
▁ударили	-13757
▁біженцям	-13758
▁вартості	-13759
▁винагоро	-13760
▁живлення	-13761
▁засуджує	-13762
▁обкладин	-13763
▁оцінками	-13764
▁продають	-13765
▁розкрити	-13766
▁херсонці	-13767
▁авіаудари	-13768
▁величезні	-13769
▁відкритих	-13770
▁демораліз	-13771
▁зрозуміли	-13772
▁контракти	-13773
▁масштабні	-13774
▁нафтобаза	-13775
▁причетний	-13776
▁причетних	-13777
▁продавати	-13778
▁продукцію	-13779
▁секретаря	-13780
▁фортифіка	-13781
▁залишилася	-13782
▁зруйнувати	-13783
▁паралельно	-13784
▁пораненого	-13785
▁скорочення	-13786
▁відмовилася	-13787
▁макрофінанс	-13788
▁незаконного	-13789
▁операційній	-13790
▁повертатися	-13791
▁призупинила	-13792
▁прикордоння	-13793
▁присутності	-13794
▁просунутися	-13795
▁транспортні	-13796
▁виготовлення	-13797
▁законопроект	-13798
▁православної	-13799
▁просуваються	-13800
▁хмельницькій	-13801
▁медпрацівники	-13802
af	-13803
uc	-13804
▁😉	-13805
!».	-13806
-34	-13807
roy	-13808
бла	-13809
жда	-13810
няв	-13811
оре	-13812
рит	-13813
чею	-13814
шую	-13815
яке	-13816
▁01	-13817
▁рє	-13818
▁🇱🇹	-13819
▁💪🏻	-13820
ward	-13821
йорк	-13822
лери	-13823
льту	-13824
мене	-13825
ните	-13826
чник	-13827
єкті	-13828
▁kor	-13829
▁met	-13830
▁бот	-13831
▁збу	-13832
▁нгу	-13833
▁неа	-13834
▁сяг	-13835
армія	-13836
духів	-13837
майор	-13838
рівся	-13839
сними	-13840
▁(+8)	-13841
▁адап	-13842
▁вито	-13843
▁знім	-13844
▁лімі	-13845
▁меті	-13846
▁мною	-13847
▁наво	-13848
▁скер	-13849
▁стін	-13850
▁тиші	-13851
-06-19	-13852
городі	-13853
канада	-13854
▁барві	-13855
▁весня	-13856
▁вічно	-13857
▁житті	-13858
▁ллойд	-13859
▁невин	-13860
▁нерух	-13861
▁приді	-13862
▁радий	-13863
▁руїни	-13864
▁рідну	-13865
▁скібі	-13866
▁собор	-13867
▁їхнім	-13868
нивійни	-13869
станцію	-13870
чуються	-13871
▁forces	-13872
▁арешту	-13873
▁бустер	-13874
▁вадима	-13875
▁голоду	-13876
▁діагно	-13877
▁емману	-13878
▁заправ	-13879
▁консер	-13880
▁репост	-13881
▁семеро	-13882
▁їхніми	-13883
компанія	-13884
туватися	-13885
чатимуть	-13886
▁відстою	-13887
▁додатку	-13888
▁домівок	-13889
▁допоміг	-13890
▁заклики	-13891
▁звучить	-13892
▁конфіск	-13893
▁портнов	-13894
▁підступ	-13895
▁снаряду	-13896
▁тікають	-13897
▁вимагали	-13898
▁виступав	-13899
▁вступити	-13900
▁дружиною	-13901
▁залучено	-13902
▁запустив	-13903
▁кандидат	-13904
▁конкурсу	-13905
▁нагороду	-13906
▁нанесено	-13907
▁поширити	-13908
▁янушевич	-13909
▁індивіду	-13910
▁безпечних	-13911
▁богодухів	-13912
▁білорусів	-13913
▁геращенко	-13914
▁гуляйполе	-13915
▁забороняє	-13916
▁залишають	-13917
▁касетними	-13918
▁лишається	-13919
▁надіслати	-13920
▁постійний	-13921
▁протестів	-13922
▁відбудуємо	-13923
▁відсторони	-13924
▁держспецзв	-13925
▁десантники	-13926
▁зазначених	-13927
▁звільнений	-13928
▁потужність	-13929
▁провокацій	-13930
▁розмістили	-13931
злочинивійни	-13932
українського	-13933
▁повідомлено	-13934
▁подобається	-13935
▁противником	-13936
▁протистояти	-13937
▁підтримував	-13938
▁відповідають	-13939
▁прессекретар	-13940
▁американської	-13941
▁дніпровському	-13942
/5	-13943
kl	-13944
mw	-13945
ас	-13946
йт	-13947
лс	-13948
ara	-13949
ica	-13950
ich	-13951
блу	-13952
воз	-13953
вол	-13954
дет	-13955
пає	-13956
пії	-13957
хій	-13958
шло	-13959
ance	-13960
енти	-13961
запе	-13962
слів	-13963
хами	-13964
▁бтг	-13965
▁віл	-13966
▁емі	-13967
▁ето	-13968
▁мою	-13969
▁трц	-13970
▁іді	-13971
▁▪️1	-13972
-300,	-13973
влада	-13974
дачів	-13975
менті	-13976
мінно	-13977
неною	-13978
основ	-13979
разом	-13980
сучас	-13981
цевла	-13982
▁diff	-13983
▁джор	-13984
▁опан	-13985
▁оточ	-13986
▁пана	-13987
▁піка	-13988
▁рафа	-13989
▁урах	-13990
експер	-13991
каналу	-13992
радник	-13993
ятника	-13994
▁втечі	-13995
▁звана	-13996
▁звані	-13997
▁кисло	-13998
▁марія	-13999
▁напів	-14000
▁нероз	-14001
▁оружи	-14002
▁повна	-14003
▁точок	-14004
▁трюдо	-14005
країною	-14006
щування	-14007
явилося	-14008
▁бербок	-14009
▁важкий	-14010
▁взяття	-14011
▁вижити	-14012
▁викону	-14013
▁восьми	-14014
▁дитячі	-14015
▁знання	-14016
▁зникло	-14017
▁кроків	-14018
▁кібера	-14019
▁наймен	-14020
▁нічних	-14021
▁пакета	-14022
▁фактів	-14023
▁чудово	-14024
▁індоне	-14025
калібрів	-14026
льському	-14027
тимуться	-14028
▁австрія	-14029
▁бровари	-14030
▁власник	-14031
▁гармати	-14032
▁гірське	-14033
▁законом	-14034
▁засудив	-14035
▁кладови	-14036
▁мерседе	-14037
▁містить	-14038
▁нагадую	-14039
▁настане	-14040
▁однозна	-14041
▁платфор	-14042
▁півроку	-14043
▁реальні	-14044
▁хвороба	-14045
луганська	-14046
▁бразилії	-14047
▁виробник	-14048
▁вільного	-14049
▁домашній	-14050
▁достовір	-14051
▁зернової	-14052
▁ключових	-14053
▁літаками	-14054
▁написали	-14055
▁нацистів	-14056
▁невдовзі	-14057
▁планував	-14058
▁подружжя	-14059
▁притулку	-14060
▁трибунал	-14061
▁цивільна	-14062
зеленський	-14063
результати	-14064
▁bayraktar	-14065
▁авіабомби	-14066
▁верховній	-14067
▁відзначив	-14068
▁відомстві	-14069
▁дозволять	-14070
▁загорівся	-14071
▁зазнавати	-14072
▁звільняти	-14073
▁катування	-14074
▁намагання	-14075
▁оновлення	-14076
▁пострілів	-14077
▁придбання	-14078
▁прилеглих	-14079
▁прокурори	-14080
▁формувань	-14081
▁херсонців	-14082
▁конкретних	-14083
▁митрополит	-14084
▁найближчих	-14085
▁приватного	-14086
▁розвідники	-14087
▁спрацювала	-14088
▁інвестиції	-14089
▁історичний	-14090
▁відмовились	-14091
▁кореспонден	-14092
▁нагадування	-14093
▁господарства	-14094
▁держсекретар	-14095
▁рашистського	-14096
▁спецпідрозді	-14097
▁територіальних	-14098
my	-14099
sj	-14100
жд	-14101
▁*	-14102
let	-14103
lex	-14104
ors	-14105
йки	-14106
мед	-14107
пам	-14108
щем	-14109
щоб	-14110
▁mc	-14111
come	-14112
soci	-14113
вана	-14114
гень	-14115
енка	-14116
помі	-14117
поча	-14118
ріїв	-14119
сним	-14120
тини	-14121
єєва	-14122
▁188	-14123
▁270	-14124
▁брі	-14125
▁лек	-14126
▁том	-14127
gress	-14128
очіль	-14129
судар	-14130
холод	-14131
▁вими	-14132
▁вкла	-14133
▁вхід	-14134
▁доба	-14135
▁діям	-14136
▁евро	-14137
▁екст	-14138
▁знищ	-14139
▁кове	-14140
▁мари	-14141
▁пери	-14142
▁сумі	-14143
▁тези	-14144
альний	-14145
жність	-14146
тувань	-14147
▁about	-14148
▁enemy	-14149
▁акцій	-14150
▁дитин	-14151
▁додає	-14152
▁звича	-14153
▁зігра	-14154
▁носії	-14155
▁петер	-14156
▁рецеп	-14157
▁розра	-14158
▁тюрми	-14159
▁чечні	-14160
промисл	-14161
селення	-14162
тичними	-14163
▁аваков	-14164
▁адреси	-14165
▁блокує	-14166
▁вечірн	-14167
▁виника	-14168
▁вкрали	-14169
▁загону	-14170
▁косово	-14171
▁легіон	-14172
▁мовами	-14173
▁облашт	-14174
▁повної	-14175
▁прийом	-14176
▁сільго	-14177
▁театру	-14178
▁тетяна	-14179
▁числен	-14180
стратегі	-14181
▁patreon	-14182
▁барвінк	-14183
▁зупиняє	-14184
▁команді	-14185
▁напевно	-14186
▁нерухом	-14187
▁нєбитов	-14188
▁обіцяли	-14189
▁притула	-14190
▁прориву	-14191
▁процеси	-14192
▁реформу	-14193
▁існують	-14194
interview	-14195
▁видавати	-14196
▁визнають	-14197
▁написати	-14198
▁працевла	-14199
▁іноземні	-14200
▁537541120	-14201
▁загальною	-14202
▁задокумен	-14203
▁затвердив	-14204
▁контролює	-14205
▁неповнолі	-14206
▁паспортів	-14207
▁повернемо	-14208
▁повітряне	-14209
▁працівник	-14210
▁ситуацією	-14211
▁соціологі	-14212
▁стійкості	-14213
▁церемонії	-14214
▁правозахис	-14215
▁призупиняє	-14216
▁притягнути	-14217
▁республіці	-14218
кроборонпром	-14219
▁вторгненням	-14220
▁відмовитися	-14221
▁добровольці	-14222
▁економічних	-14223
▁залякування	-14224
▁зустрічають	-14225
▁навчального	-14226
▁обороноздат	-14227
▁підприємців	-14228
▁залізничному	-14229
▁надзвичайних	-14230
▁розслідувань	-14231
▁співробітник	-14232
▁хмельницький	-14233
▁бєлгородській	-14234
▁обвинувачення	-14235
▁нікопольському	-14236
▁розвідувальний	-14237
!"	-14238
ny	-14239
ta	-14240
им	-14241
yst	-14242
▁94	-14243
▁ib	-14244
▁sw	-14245
.01.	-14246
бурн	-14247
вімк	-14248
дові	-14249
хаха	-14250
чкою	-14251
ярто	-14252
▁10%	-14253
▁195	-14254
▁19:	-14255
▁80-	-14256
▁sun	-14257
▁нім	-14258
▁пру	-14259
▁пуш	-14260
▁ііі	-14261
бюдже	-14262
зуємо	-14263
ливий	-14264
маном	-14265
маємо	-14266
нафто	-14267
неним	-14268
язано	-14269
▁1500	-14270
▁блог	-14271
▁віро	-14272
▁киев	-14273
▁мраз	-14274
▁муль	-14275
▁обер	-14276
▁одер	-14277
▁поби	-14278
▁свіж	-14279
мобіль	-14280
тового	-14281
єднати	-14282
▁кирги	-14283
▁литві	-14284
▁ліків	-14285
▁мирів	-14286
▁підхо	-14287
▁рятує	-14288
▁стран	-14289
▁тишки	-14290
▁храму	-14291
▁шкода	-14292
▁варвар	-14293
▁версію	-14294
▁вигляд	-14295
▁внесли	-14296
▁водіїв	-14297
▁втрата	-14298
▁вірять	-14299
▁дивізі	-14300
▁дизайн	-14301
▁доєдна	-14302
▁заспів	-14303
▁коштує	-14304
▁мавіки	-14305
▁навіщо	-14306
▁правом	-14307
▁ритори	-14308
▁робочі	-14309
▁розшук	-14310
▁різдвя	-14311
▁рішуче	-14312
▁сильна	-14313
▁статтю	-14314
американ	-14315
відповід	-14316
пропаган	-14317
▁аукціон	-14318
▁відобра	-14319
▁героїзм	-14320
▁госпіта	-14321
▁гірсько	-14322
▁допусти	-14323
▁калінін	-14324
▁легіону	-14325
▁накрили	-14326
▁напряму	-14327
▁области	-14328
▁перемиш	-14329
▁продати	-14330
▁розмові	-14331
▁старший	-14332
▁everyone	-14333
▁макіївці	-14334
▁називати	-14335
▁нікополю	-14336
▁отримані	-14337
▁позашлях	-14338
▁похилого	-14339
▁почалась	-14340
▁проспект	-14341
▁скасував	-14342
▁стріляни	-14343
▁стріляти	-14344
▁тримаємо	-14345
▁фіксують	-14346
▁ізоляції	-14347
▁асоціації	-14348
▁керівниця	-14349
▁київський	-14350
▁козицький	-14351
▁компанією	-14352
▁луганщина	-14353
▁людяності	-14354
▁найкращих	-14355
▁неможливе	-14356
▁оператори	-14357
▁офіційним	-14358
▁очільниця	-14359
▁поділився	-14360
▁стримують	-14361
▁студентів	-14362
▁інтерсіті	-14363
євробачення	-14364
▁декларацію	-14365
▁економічні	-14366
▁командиром	-14367
▁пресслужбі	-14368
▁природного	-14369
▁підготовці	-14370
▁тепловізій	-14371
▁використали	-14372
▁компенсації	-14373
▁повернеться	-14374
▁складається	-14375
▁житомирської	-14376
▁кореспондент	-14377
▁мобілізовані	-14378
▁стабільності	-14379
▁законодавства	-14380
▁правоохоронних	-14381
,4	-14382
cu	-14383
oe	-14384
лт	-14385
▁🇹	-14386
low	-14387
ome	-14388
бек	-14389
бук	-14390
вєд	-14391
зом	-14392
кен	-14393
хта	-14394
▁ас	-14395
▁оф	-14396
леты	-14397
цьке	-14398
цьку	-14399
▁210	-14400
▁hum	-14401
▁nyt	-14402
▁лет	-14403
▁пох	-14404
▁пта	-14405
▁тип	-14406
діяти	-14407
нська	-14408
річчя	-14409
стила	-14410
сіона	-14411
цезна	-14412
явити	-14413
▁(+11	-14414
▁(+9)	-14415
▁арми	-14416
▁блін	-14417
▁брак	-14418
▁ввез	-14419
▁коха	-14420
▁лета	-14421
▁паль	-14422
▁приї	-14423
▁симо	-14424
▁флеш	-14425
рантів	-14426
▁10:00	-14427
▁power	-14428
▁араві	-14429
▁вижив	-14430
▁донат	-14431
▁життю	-14432
▁згоди	-14433
▁злаго	-14434
▁зраді	-14435
▁кризу	-14436
▁лубни	-14437
▁марок	-14438
▁месен	-14439
▁морпі	-14440
▁пеклі	-14441
▁полум	-14442
▁рубри	-14443
▁сексу	-14444
▁скуль	-14445
▁сліди	-14446
▁стурб	-14447
▁треті	-14448
▁індія	-14449
запеклі	-14450
скавець	-14451
▁брехню	-14452
▁взводу	-14453
▁втекли	-14454
▁гривні	-14455
▁дійшли	-14456
▁змінив	-14457
▁змінює	-14458
▁кіломе	-14459
▁лозова	-14460
▁переди	-14461
▁только	-14462
▁тошків	-14463
▁трьома	-14464
▁урядов	-14465
▁формат	-14466
▁єворог	-14467
▁javelin	-14468
▁вільний	-14469
▁гасіння	-14470
▁господа	-14471
▁довгень	-14472
▁епідемі	-14473
▁заповід	-14474
▁зупинки	-14475
▁кадирів	-14476
▁обшуків	-14477
▁пабліки	-14478
▁поїхали	-14479
▁скоріше	-14480
▁служить	-14481
▁спільна	-14482
▁управлі	-14483
▁близьким	-14484
▁виробляє	-14485
▁геннадій	-14486
▁доставку	-14487
▁дівчинку	-14488
▁енергооб	-14489
▁жертвами	-14490
▁житомирі	-14491
▁задонати	-14492
▁зупинено	-14493
▁колабора	-14494
▁місцезна	-14495
▁нейтралі	-14496
▁оцінюють	-14497
▁половини	-14498
▁підсумки	-14499
▁символом	-14500
▁спільний	-14501
▁татарова	-14502
▁телеведу	-14503
білізувати	-14504
ватиметься	-14505
▁вибуховою	-14506
▁виступили	-14507
▁вовчанськ	-14508
▁долучився	-14509
▁загальний	-14510
▁змаганнях	-14511
▁митрополи	-14512
▁ніколенко	-14513
▁німецький	-14514
▁прикладом	-14515
▁протираке	-14516
▁респонден	-14517
▁ушкоджень	-14518
▁автобусами	-14519
▁виглядають	-14520
▁враховуючи	-14521
▁відведення	-14522
▁отримували	-14523
▁постійними	-14524
▁призводить	-14525
▁публікації	-14526
▁самохідних	-14527
▁європейців	-14528
▁відзначають	-14529
▁загострення	-14530
▁здійснювали	-14531
▁міжнародній	-14532
▁оприлюднили	-14533
▁призначений	-14534
▁підрозділах	-14535
▁розглядають	-14536
▁севастополь	-14537
▁боєздатності	-14538
▁білоруського	-14539
▁відновленням	-14540
▁каспійського	-14541
▁конфіскацією	-14542
▁національних	-14543
▁попереджають	-14544
▁представниця	-14545
▁сєверодонецьк	-14546
cl	-14547
if	-14548
nz	-14549
ye	-14550
:45	-14551
app	-14552
kar	-14553
вет	-14554
дим	-14555
дло	-14556
діо	-14557
йся	-14558
свя	-14559
фан	-14560
чте	-14561
дене	-14562
дола	-14563
мату	-14564
сайд	-14565
фінг	-14566
чуть	-14567
чіку	-14568
їнку	-14569
▁136	-14570
▁2-3	-14571
▁260	-14572
▁mon	-14573
▁бел	-14574
▁вца	-14575
▁пво	-14576
▁пес	-14577
▁ске	-14578
▁іло	-14579
дієць	-14580
мінус	-14581
неско	-14582
росії	-14583
слуги	-14584
сполу	-14585
стями	-14586
укрпо	-14587
▁tech	-14588
▁бучу	-14589
▁виїз	-14590
▁дала	-14591
▁лега	-14592
▁малі	-14593
▁ніде	-14594
▁сюже	-14595
▁теми	-14596
▁щіль	-14597
білісі	-14598
новану	-14599
правед	-14600
служба	-14601
тримки	-14602
шахеди	-14603
▁(+10)	-14604
▁right	-14605
▁анекс	-14606
▁вбиті	-14607
▁викуп	-14608
▁винні	-14609
▁гутер	-14610
▁доріг	-14611
▁кияни	-14612
▁колег	-14613
▁костю	-14614
▁кубра	-14615
▁надіш	-14616
▁пенсі	-14617
▁сфера	-14618
▁фести	-14619
▁шуфри	-14620
▁імена	-14621
авіація	-14622
каналів	-14623
▁адресу	-14624
▁атакує	-14625
▁будете	-14626
▁вивели	-14627
▁вокзал	-14628
▁вірить	-14629
▁казали	-14630
▁конвер	-14631
▁мотива	-14632
▁новими	-14633
▁помсти	-14634
▁претен	-14635
▁продол	-14636
▁саудів	-14637
▁спробі	-14638
▁швидкі	-14639
льського	-14640
▁більшої	-14641
▁високою	-14642
▁вистави	-14643
▁виявила	-14644
▁гвинтів	-14645
▁готуємо	-14646
▁групами	-14647
▁гіркіна	-14648
▁довічне	-14649
▁завезли	-14650
▁кінбурн	-14651
▁можливу	-14652
▁номером	-14653
▁погодив	-14654
▁предмет	-14655
▁препара	-14656
▁програє	-14657
▁садовий	-14658
▁тривалі	-14659
▁украину	-14660
▁уточнив	-14661
▁членами	-14662
зукраїною	-14663
▁будівлях	-14664
▁вдоскона	-14665
▁вимагати	-14666
▁головним	-14667
▁зазнають	-14668
▁карантин	-14669
▁київщина	-14670
▁морально	-14671
▁погодили	-14672
▁половину	-14673
▁поспілку	-14674
▁поставку	-14675
▁проблему	-14676
▁системою	-14677
▁ірландії	-14678
▁власників	-14679
▁дістатися	-14680
▁загальної	-14681
[...]
